[PAD]
[UNK]
[CLS]
[SEP]
[MASK]
<S>
<T>
!
"
#
$
%
&
'
(
)
*
+
,
-
.
/
0
1
2
3
4
5
6
7
8
9
:
;
<
=
>
?
@
[
\
]
^
_
`
a
b
c
d
e
f
g
h
i
j
k
l
m
n
o
p
q
r
s
t
u
v
w
x
y
z
{
|
}
~
«
°
²
´
·
»
¿
×
ß
æ
ð
ø
đ
ı
ł
ŋ
œ
ə
ɞ
ʚ
α
ε
ι
ο
ω
а
б
в
г
д
е
ж
з
и
к
л
м
н
о
п
р
с
т
у
ф
х
ц
ч
ш
щ
ы
ь
э
ю
я
є
і
א
ב
ד
ה
ו
י
ל
ם
מ
נ
ע
ר
ש
ת
،
؛
؟
ء
ا
ب
ة
ت
ث
ج
ح
خ
د
ذ
ر
ز
س
ش
ص
ض
ط
ظ
ع
غ
ـ
ف
ق
ك
ل
م
ن
ه
و
ى
ي
٠
١
٢
٣
٤
٥
٦
٧
٨
٩
٪
ٱ
ٲ
ٹ
ٺ
پ
چ
ڈ
ڑ
ژ
ڤ
ڨ
ک
ڪ
ګ
گ
ں
ھ
ہ
ۃ
ۆ
ۈ
ی
ێ
ې
ے
۔
ە
۞
ۥ
ۦ
۰
۱
۲
अ
आ
इ
ई
उ
ए
औ
क
ख
ग
च
छ
ज
ट
ड
ण
त
थ
द
ध
न
प
फ
ब
भ
म
य
र
ल
व
श
ष
स
ह
ा
ि
ी
ो
।
ক
ত
ন
ব
ম
য
র
া
ি
ে
ર
ા
କ
ତ
ନ
ବ
ମ
ର
ା
େ
ก
ค
ง
ด
ต
น
บ
ม
ย
ร
ล
ว
ห
อ
ะ
า
เ
แ
ไ
ღ
ᄀ
ᄁ
ᄂ
ᄃ
ᄅ
ᄆ
ᄇ
ᄈ
ᄉ
ᄋ
ᄌ
ᄎ
ᄏ
ᄐ
ᄑ
ᄒ
ᅡ
ᅢ
ᅣ
ᅥ
ᅦ
ᅧ
ᅩ
ᅪ
ᅬ
ᅭ
ᅮ
ᅲ
ᅳ
ᅴ
ᅵ
ᆨ
ᆫ
ᆮ
ᆯ
ᆷ
ᆸ
ᆺ
ᆻ
ᆼ
ᆾ
ᇀ
–
—
‘
’
“
”
•
…
‼
⁉
€
⃣
↖
↗
─
━
█
▒
▪
●
☀
☆
☕
☝
☠
☹
☺
☻
♀
♂
♡
♥
♦
♪
⚘
⚡
⚽
⛔
✂
✅
✈
✊
✋
✌
✍
✔
✨
❌
❗
❣
❤
⠀
⬅
⬇
⭐
⭕
ⴰ
、
。
々
》
「
」
『
』
【
】
〜
ぁ
あ
い
う
ぇ
え
お
か
き
く
け
こ
さ
し
す
せ
そ
た
ち
っ
つ
て
と
な
に
ね
の
は
ひ
ふ
へ
ほ
ま
み
む
め
も
ゃ
や
ゅ
ゆ
ょ
よ
ら
り
る
れ
ろ
わ
を
ん
ァ
ア
ィ
イ
ウ
ェ
エ
ォ
オ
カ
キ
ク
ケ
コ
サ
シ
ス
セ
ソ
タ
チ
ッ
ツ
テ
ト
ナ
ニ
ネ
ノ
ハ
ヒ
フ
ヘ
ホ
マ
ミ
ム
メ
モ
ャ
ヤ
ュ
ョ
ラ
リ
ル
レ
ロ
ワ
ン
・
ー
ヽ
ㅋ
ㅠ
ㅤ
一
上
下
中
事
人
今
休
会
体
何
作
使
信
先
入
全
円
写
出
分
初
前
力
加
動
勝
募
参
取
可
合
同
名
味
品
問
回
場
変
多
大
天
女
好
嬉
子
定
実
家
対
小
少
年
店
度
張
強
当
待
後
心
応
思
意
愛
感
戦
手
持
新
方
日
明
時
更
最
月
本
来
業
楽
様
欲
気
無
物
理
生
田
画
番
発
的
目
真
知
私
笑
素
結
美
者
自
良
色
行
見
言
話
買
質
近
通
違
部
野
金
開
間
関
集
面
頑
願
食
高
ꭵ
ꭿ
ﭑ
ﯾ
﴾
﴿
ﷺ
ﹻ
ﺀ
ﺁ
ﺂ
ﺃ
ﺄ
ﺇ
ﺋ
ﺍ
ﺎ
ﺏ
ﺐ
ﺑ
ﺒ
ﺓ
ﺔ
ﺕ
ﺖ
ﺗ
ﺘ
ﺜ
ﺟ
ﺠ
ﺣ
ﺤ
ﺧ
ﺨ
ﺩ
ﺪ
ﺫ
ﺬ
ﺭ
ﺮ
ﺯ
ﺰ
ﺱ
ﺲ
ﺳ
ﺴ
ﺵ
ﺷ
ﺸ
ﺻ
ﺼ
ﻀ
ﻃ
ﻄ
ﻊ
ﻋ
ﻌ
ﻏ
ﻐ
ﻑ
ﻒ
ﻓ
ﻔ
ﻖ
ﻗ
ﻘ
ﻙ
ﻚ
ﻛ
ﻜ
ﻝ
ﻞ
ﻟ
ﻠ
ﻡ
ﻢ
ﻣ
ﻤ
ﻥ
ﻦ
ﻧ
ﻨ
ﻩ
ﻪ
ﻫ
ﻬ
ﻭ
ﻮ
ﻰ
ﻱ
ﻲ
ﻳ
ﻴ
ﻷ
ﻹ
ﻻ
ﻼ
！
（
）
；
？
＿
｀
ｗ
｜
～
｡
･
ﾞ
ﾟ
￣
🇦
🇧
🇨
🇩
🇪
🇫
🇬
🇮
🇰
🇱
🇲
🇳
🇵
🇶
🇷
🇸
🇹
🇺
🇾
🇿
🌈
🌙
🌚
🌝
🌟
🌱
🌳
🌴
🌶
🌷
🌸
🌹
🌺
🌻
🌼
🌿
🍀
🍁
🍂
🍃
🍒
🍓
🍯
🎁
🎂
🎈
🎉
🎊
🎓
🎤
🎩
🎵
🎶
🎼
🏃
🏆
🏻
🏼
🏽
🏾
🏿
🐸
👀
👆
👇
👈
👉
👊
👋
👌
👍
👎
👏
👐
👑
👨
👩
👯
👻
💀
💁
💃
💅
💋
💌
💍
💎
💐
💓
💔
💕
💖
💗
💘
💙
💚
💛
💜
💝
💞
💟
💢
💣
💥
💦
💩
💪
💫
💭
💯
💰
💵
💸
📌
📍
📚
📱
📸
🔥
🔪
🔫
🔴
🔵
🔸
🔹
🕊
🕋
🕌
🖐
🖕
🖤
😀
😁
😂
😃
😄
😅
😆
😇
😈
😉
😊
😋
😌
😍
😎
😏
😐
😑
😒
😓
😔
😕
😖
😗
😘
😙
😚
😛
😜
😝
😞
😟
😠
😡
😢
😣
😤
😥
😧
😨
😩
😪
😫
😬
😭
😮
😯
😰
😱
😲
😳
😴
😵
😶
😷
😹
😻
😾
😿
🙁
🙂
🙃
🙄
🙆
🙇
🙈
🙉
🙊
🙋
🙌
🙏
🚀
🚨
🚬
🚶
🛑
🤍
🤐
🤓
🤔
🤕
🤗
🤙
🤚
🤝
🤞
🤡
🤢
🤣
🤤
🤥
🤦
🤧
🤨
🤩
🤪
🤫
🤬
🤭
🤮
🤯
🤲
🤷
🥀
🥰
🥲
🥳
🥴
🥵
🥶
🥺
🦅
🦋
🦦
🧐
🧡
##ا
##ل
##ی
##ہ
##ر
##غ
##م
##ش
##ع
##ي
##ة
##ت
##ب
##ك
##f
##a
##q
##i
##d
##ه
##س
##j
##h
##e
##n
##و
##l
##m
##😂
##o
##u
##z
##k
##w
##c
##t
##s
##r
##p
##v
##ق
##د
##💕
##ن
##ض
##b
##9
##0
##ز
##ط
##ح
##y
##ذ
##ص
##g
##ء
##3
##8
##😜
##🤓
##😍
##ث
##ﻟ
##ﺴ
##ﺬ
##ﺍ
##ﺟ
##ﺔ
##ग
##र
##ﾞ
##さ
##せ
##て
##р
##ف
##ج
##ち
##ゃ
##く
##そ
##イ
##ケ
##ホ
##な
##ん
##た
##よ
##あ
##も
##う
##ほ
##と
##ى
##7
##ﻫ
##ـ
##ﺮ
##ﻱ
##خ
##🙄
##お
##✈
##え
##へ
##は
##す
##や
##か
##ら
##2
##🐸
##у
##з
##ь
##я
##м
##и
##ظ
##प
##ि
##व
##ा
##😾
##😑
##😕
##😶
##👆
##ह
##म
##💰
##🤦
##x
##ে
##া
##ক
##ব
##い
##る
##😯
##ত
##ম
##ন
##ﺨ
##ﻄ
##ﻮ
##ﺕ
##ڨ
##💚
##ø
##ᅵ
##ᆻ
##ᄂ
##ᅳ
##ᆫ
##ᄀ
##ᅥ
##ᅦ
##ᄌ
##ᄋ
##ᅭ
##ᅡ
##ᄅ
##😭
##🙏
##ڪ
##য
##ね
##٣
##٦
##❤
##🤭
##ᄃ
##а
##н
##і
##с
##т
##1
##о
##っ
##گ
##6
##🇩
##🇿
##💪
##🔥
##✔
##ﺠ
##ﺎ
##の
##タ
##ク
##つ
##し
##ł
##♂
##🤗
##😬
##💝
##ш
##е
##メ
##ン
##エ
##チ
##ノ
##چ
##ß
##5
##😌
##😅
##х
##サ
##フ
##4
##😏
##æ
##ま
##け
##ڈ
##🏻
##✅
##😐
##ャ
##ス
##テ
##ー
##シ
##न
##क
##ो
##🎉
##😻
##đ
##پ
##💔
##🌝
##🙈
##🤯
##😡
##य
##ट
##ﻴ
##😉
##😔
##🏽
##ı
##😁
##✨
##に
##き
##🏃
##ト
##ヒ
##ア
##れ
##❣
##🙂
##👀
##ル
##わ
##ٱ
##😱
##💙
##ڤ
##ﻤ
##ﻣ
##ﺘ
##ﻬ
##ﻢ
##👇
##י
##נ
##ת
##ろ
##🥺
##त
##œ
##😠
##´
##💖
##🖤
##♥
##😫
##ﻓ
##😇
##🙊
##ں
##🇺
##🇸
##🇦
##😢
##ы
##л
##п
##ھ
##ﺑ
##ﻌ
##ﺰ
##ﻳ
##١
##٠
##ी
##😄
##🇳
##🌸
##🤲
##💓
##🖕
##🤣
##👊
##ﻔ
##👎
##🧡
##ﺣ
##ﺪ
##ﻧ
##ﻲ
##ﺸ
##💛
##ﻻ
##ﺭ
##👑
##😹
##🍯
##😤
##😓
##💣
##🤷
##🤍
##🤔
##ŋ
##²
##ぁ
##⚘
##✋
##ﺳ
##ﻡ
##😲
##є
##к
##ч
##स
##😎
##🌚
##♀
##😋
##め
##ッ
##リ
##👌
##👍
##📸
##ٹ
##ک
##💋
##💘
##💞
##🤮
##ニ
##ハ
##€
##ᅢ
##ᅧ
##ᄒ
##👏
##ゅ
##ソ
##ロ
##ᆼ
##ᅮ
##🚶
##ц
##🥲
##💜
##🇰
##💍
##ନ
##ତ
##🇵
##ю
##🇹
##☺
##ے
##💃
##ﻜ
##ﺤ
##ﻝ
##ज
##в
##ﻥ
##ﻭ
##ﺩ
##ﭑ
##ﻏ
##ะ
##🦦
##😣
##д
##オ
##द
##ष
##😃
##ล
##ว
##อ
##ﻛ
##ﻞ
##み
##こ
##ワ
##🏿
##ध
##☹
##～
##б
##を
##キ
##ラ
##り
##ェ
##ᅩ
##ᄁ
##コ
##ﺒ
##ﻗ
##ﺼ
##😗
##ᆸ
##😪
##🥰
##ण
##モ
##ﻩ
##ﻨ
##ﻘ
##😥
##ﺓ
##🇬
##🖐
##٨
##ल
##٧
##👯
##ナ
##カ
##ネ
##ﻐ
##ﺖ
##😆
##ﻰ
##ᆯ
##ᄉ
##ﹻ
##✌
##ゆ
##😊
##ﻙ
##😒
##ख
##ﻷ
##ە
##👩
##ひ
##💁
##ε
##ο
##α
##🔴
##🌟
##ﻦ
##🌼
##😳
##✊
##थ
##💯
##ﻒ
##ۆ
##🧐
##😀
##ɞ
##😩
##ۥ
##レ
##ﺫ
##ﻖ
##👨
##ᇀ
##ᄇ
##ા
##🙃
##🇾
##ᆨ
##😴
##ﺐ
##🌹
##🥴
##ﺜ
##😷
##｀
##✂
##マ
##☝
##🥀
##🤩
##ﺯ
##ﻚ
##א
##ר
##ו
##ﷺ
##щ
##🌷
##େ
##ା
##🤐
##🏆
##🙌
##🍒
##भ
##ए
##😘
##♡
##🇷
##ﻠ
##🌙
##🕌
##💟
##ウ
##ィ
##ヘ
##👉
##🎤
##🙋
##🤨
##🍂
##🏾
##🙁
##🙆
##🙇
##г
##😞
##ﻃ
##ﻊ
##💗
##٤
##😰
##🤪
##ﺷ
##🎶
##☠
##э
##ф
##ﺏ
##セ
##ל
##🤥
##🔪
##💀
##💎
##ι
##👈
##❌
##ᅲ
##ᆺ
##ې
##ต
##เ
##น
##ﺗ
##ﻪ
##ﺻ
##🕊
##⃣
##ᅪ
##ร
##า
##ม
##ง
##ไ
##ห
##ょ
##ﺧ
##ה
##ש
##ۃ
##ァ
##ミ
##🏼
##🤙
##👻
##ョ
##⚽
##🎊
##ꭵ
##😚
##🤡
##ə
##💥
##ᅣ
##ツ
##°
##🤫
##😈
##🤝
##🚀
##ژ
##ێ
##ﻀ
##ﯾ
##ꭿ
##😵
##श
##☻
##ᆾ
##٩
##ٺ
##█
##▒
##💐
##🤤
##ﻋ
##🎩
##🥵
##🤕
##🎵
##٢
##ð
##🌺
##ย
##บ
##ก
##ค
##⭐
##ﺂ
##🇧
##🍃
##🍀
##🇪
##ж
##🥳
##☀
##ʚ
##ﺀ
##🌱
##💭
##ぇ
##❗
##💫
##ⴰ
##٥
##ᅴ
##☕
##ד
##इ
##🦅
##🍁
##ର
##ګ
##👋
##ﻼ
##ᄆ
##🇮
##ᅬ
##🎁
##ﾟ
##💌
##ם
##ବ
##ュ
##ड
##💦
##♪
##🌿
##🕋
##⬇
##ମ
##ム
##फ
##🇫
##ב
##מ
##ヤ
##ᆷ
##💵
##ब
##🤬
##ڑ
##ᄐ
##🇱
##ォ
##×
##🇲
##🦋
##ด
##😨
##ۦ
##🤧
##ﺃ
##😛
##ω
##🌶
##র
##च
##ע
##む
##ᄎ
##ふ
##🍓
##🤢
##😮
##🇶
##💩
##🤞
##✍
##☆
##କ
##😿
##↗
##🤚
##🔸
##😟
##🌴
##🙉
##😖
##😝
##📱
##♦
##ﺱ
##━
##🇨
##🔵
##ﺄ
##🔫
##ﺇ
##ᄏ
##🛑
##🌈
##🎓
##ღ
##🎈
##🚬
##۰
##🎂
##ᄑ
##🌳
##ﺲ
##ヽ
##ﺁ
##ি
##💅
##ﺵ
##💸
##🎼
##ㅋ
##ㅠ
##⛔
##ﻹ
##แ
##👐
##ई
##ᄈ
##↖
##ﺋ
##🥶
##😧
##⚡
##📌
##⬅
##ર
##📍
##۱
##｜
##🌻
##۞
##📚
##▪
##⭕
##ｗ
##●
##ﻑ
##─
##अ
##😙
##उ
##⠀
##छ
##ٲ
##🔹
##ۈ
##🚨
##ㅤ
##💢
##۲
##ᆮ
##आ
##￣
##औ
ال
##er
##ال
##ser
user
##ان
##نا
##لي
##ها
##لا
##ين
##ou
##ير
##له
##ار
في
##هه
##ات
##in
من
##an
##on
ان
##هم
##بي
##ون
##ام
الم
##اي
##ha
##en
##ري
##es
##ول
##ed
##وا
##دي
##را
##la
الله
ما
##om
##ما
##ar
##اب
##ية
وال
الا
an
##ور
##ست
##al
##كم
##mi
##لى
##يا
##اع
الع
##is
##ch
لا
##tt
وا
لي
مع
com
ma
##وم
على
##هههه
الح
##لم
##تي
عن
##lin
##re
##ra
##el
بال
##ني
##في
علي
##ps
##as
##ذا
##it
را
##لو
##ttps
الج
##ad
##zed
##ony
https
##رو
anony
##link
##mized
anonymized
anonymizedlink
يا
##اء
##😂😂
##حد
##am
##ah
##le
##اد
##at
##hh
de
##يت
##يد
##حم
ولا
##00
الس
##اش
كي
##li
الش
##em
كل
##رب
##or
##لك
##عد
الت
##رف
##رج
##رة
##ak
##زا
##رك
##سي
الب
ام
##عب
la
##حب
##قد
##تو
##اك
##ay
##اه
##يه
##ti
##نت
انا
##لة
##ir
تع
الد
##حت
##اج
##اس
##st
الق
ربي
كان
##مي
او
##he
الف
الك
##بر
qu
##اا
##يب
##ab
لل
##et
##قي
##ود
يع
##قول
الخ
الص
اخ
le
##كي
##لب
عند
##وي
انت
##id
##im
##من
##دا
##لق
##شي
##تك
##وف
##ent
##اني
وي
##مة
al
##ek
##il
##سب
##زاير
##كر
##سم
##ur
مت
##كن
الو
##اف
##our
##lah
وت
et
##قة
sa
ch
##كون
##طي
##لام
الن
en
##عة
##وج
هو
##حي
##بل
##قت
##na
هذا
الي
غير
تاع
##حة
مش
اي
##وك
اع
##ne
##وت
بي
##دة
وان
##كل
##الي
to
in
##ma
##ia
##ro
##لت
اب
##ik
##ss
##ربي
شي
##دم
##عم
##وو
##te
##فس
##ol
اللي
##ya
تح
وم
##هههههههه
##فر
يت
رو
حت
ou
واحد
##ie
##رحم
فال
##ذي
##اح
##نة
علا
الجزاير
قال
مس
اك
##خل
##ve
##ib
##بع
##a3
##رت
##جي
##ولي
##di
##هد
##ing
نت
يح
##اط
##فت
el
ون
est
##ce
mo
##هو
##ine
حتى
##عي
اح
re
##hhhh
##بار
##وس
##وق
اس
لم
les
##us
##الم
##هي
بس
me
عم
##جع
ha
مي
##او
##نو
the
بعد
والله
صح
وش
##رق
##حك
است
pas
الز
##hi
##دو
##ut
fa
##يي
الط
##ناس
ya
##صح
بلا
##كان
##ho
الى
##بة
##ــ
##ri
be
يخ
un
هي
##صل
##عو
##ta
تت
ها
##oo
##000
تق
ne
##لهم
تب
##اص
li
وج
##🤣🤣
##aa
😂😂😂
واش
الان
لو
##دير
##اري
##ous
وب
##ته
##da
اللهم
يش
je
il
##وع
##رد
دي
##جل
##un
se
الام
عليه
مات
##qu
##رض
que
يس
##رش
بع
لان
تخ
##زي
##مع
شو
##os
##انا
on
ات
با
شاء
##wa
##هر
##يرة
قد
am
بن
##قط
تش
##ii
##3000
u3000
##يني
##ارب
##تها
##😭😭
##لها
يوم
##وش
فيه
اش
اذا
##out
بد
##and
وع
##غل
##ni
كيف
##ot
##ثر
cha
اص
##خص
##ولة
##مض
wa
كنت
فيها
الناس
##طو
##الك
u2
##ضي
##ang
had
##ند
يرحم
مو
##بح
##نس
خير
تم
اه
##جب
##حمد
th
ab
kh
par
##رية
##قل
مد
des
##سك
نفس
##aw
##ion
##مضان
##امل
##ant
اف
##ذه
##وني
لله
di
##زم
فر
##وه
au
بل
##ارة
##ره
##cha
بت
ول
حس
##se
له
##rr
fi
##me
الغ
##ien
##رام
قبل
ههههه
##مد
##ere
وحد
##اية
##صر
ملي
##ينة
##يم
وس
يب
kha
رب
##الله
نح
حي
مح
مث
##gh
ra
##ul
is
يق
##خر
عليك
تف
na
##يش
##كت
نش
ar
##اجة
لق
##روح
##اتي
سي
لما
اج
##de
##فة
ta
##سان
ماشي
لكن
##سة
عش
so
😂😂
##اق
con
##لع
##che
رمضان
pour
وق
عب
وح
##ani
تو
##bi
لك
##ba
باش
يم
##ورة
##ina
##ادي
تس
##ans
##ger
##to
##رم
##لات
ولي
##ja
su
##ff
da
##رار
##za
يقول
##فع
##ريق
##اين
##وب
##lh
بش
you
##ge
##راك
##فظ
##ده
ين
ba
##زال
and
##سل
تن
tu
##طر
##هار
##res
ro
بين
دار
يد
راح
##عرف
به
##end
##مل
##غير
ce
الر
##نات
20
##ane
##ci
##sa
##وة
##الة
ki
ca
برك
##زيد
##يل
##وال
اني
##لاد
لب
bou
##طن
الشعب
يج
بك
خو
عليها
اق
الث
##طة
##تم
we
حق
##ايم
تص
بصح
وين
##ire
مست
du
عندي
##ow
##سن
##kh
راي
##ham
مب
##ana
دا
كانت
ram
مج
te
يعني
ماي
mar
ار
##وز
اليوم
يكون
ni
بلي
ben
المس
اد
wal
انه
كب
مق
##ضل
يارب
##جة
##لين
##oun
وانا
مر
نحب
##ونا
هنا
تغ
يست
##مال
##فيظ
une
نق
##😂😂😂😂
##oum
الاس
تج
qui
##pp
it
##به
##لف
mais
الاخ
##ههه
do
الل
وص
##مان
##ers
##مر
ana
##ux
قلب
alger
العالم
##que
##fi
##بت
##قى
كامل
##راء
##بارك
si
##لاب
##ابة
##اااا
راك
بح
gh
##اهم
##hab
نس
حاجة
##um
st
##رى
دير
##الب
as
ناس
##اذ
##بية
##امي
##قدر
bl
ham
for
##oul
هم
لع
bel
انك
##وها
خلي
كت
##lam
الذ
##hat
الذي
##از
##ميع
##خخ
راه
mon
كيما
تكون
يه
شع
##وض
لح
هاد
مخ
##انية
##pe
بزا
wlh
##ite
تقول
##تش
التي
he
of
##ga
##chi
##وار
##نيا
##فهم
##لية
##ic
قل
وخ
##هههههههههههههههه
##ka
حب
##est
##الح
ka
نص
لازم
روح
##نية
##زق
##سر
يط
pro
##جال
man
حفيظ
تد
##مت
مك
##دية
##زة
##صة
##eb
u200
مال
الار
هذه
##زوج
3la
##عت
##ass
fr
شك
تك
pe
##عل
علاش
ramad
يص
men
اله
##لال
بق
حبي
شغل
الخير
شوية
##اخ
bi
##ارك
##عن
اكثر
##باح
##ريب
##ديد
اما
##ly
##kom
##3a
المش
هك
no
##ima
اسم
كاين
اغ
##ama
شخص
##راهم
وه
##دق
##haha
##ali
وما
##باب
بعض
حد
##وان
##06
مص
##وري
كون
وقت
##ck
##افي
mer
عام
ومن
##سلو
hi
##ess
##ee
والم
##ريد
##جر
ak
محمد
بالله
##hom
pl
##ver
co
po
##در
ai
##ter
فيك
عاي
للم
للا
##يتو
الحمد
##fa
باب
##جعل
اول
##حال
lo
الري
احد
ad
##اض
##tion
##نين
مكان
منا
rah
##فو
علم
فقط
بزاف
حسب
ست
##دين
خويا
##لمة
##ديك
##رح
فل
لوك
##ont
es
عشان
##اتك
هذي
##ضحك
##امة
im
sur
لن
وك
##ara
شيء
##ation
##حق
##لاص
##غي
##ايا
بم
##سط
##ربية
صحا
عبد
##gu
##ظيم
pr
لوكان
لت
##ادة
حنا
##zi
##شر
vous
ju
##kk
##ct
عليهم
خاط
وز
3li
اليه
##ki
u206
فت
##شاء
##انة
##lo
ex
زوج
##مو
##نه
##فق
##لاق
نع
##th
مم
سنة
rab
##ومة
راني
نهار
##ثير
##يك
تست
قاع
##حتاج
وانت
مان
##رات
الاح
##طب
##sh
tr
##ca
##قدرش
##ment
##hhhhhhhh
ah
المن
##وى
الوا
##اوي
مرة
##راب
##عه
##لعب
يدير
##kt
علينا
##dou
مثل
##ji
##adi
يحفظ
##دار
##eme
##رر
##فل
الرج
لاب
##ظر
##جد
##اة
##غفر
##رس
##ement
##oi
mi
الاست
pa
وهو
عندك
##تر
ساع
##لوب
نخ
##ايد
الشي
##يس
che
ho
##نى
##dd
##va
##ليل
va
##ari
##اها
##ريم
حال
##زل
عليكم
تاك
##do
##هل
عط
##leh
##ناء
ave
##علي
##ياة
##لاح
خط
تحب
##راي
ليس
بان
##كو
بص
قلت
سب
وحدة
##وص
ramadan
##ضع
sou
##راق
رحم
ايا
نقول
نف
wallah
المهم
##مين
باه
##❤❤
ta3
##ort
شفت
bon
مزال
or
لها
هههه
##سو
صايم
##لط
اخر
ري
tw
تط
##ايل
ولك
كبير
##ze
يحب
هل
اط
المت
##iss
##ولو
هد
كم
كما
المغ
نج
كن
##خير
u200d
##فيق
##دك
my
gu
قت
dans
والو
##vo
شحال
يف
از
mat
الجنة
ap
##اتش
##اشر
##مه
بط
##har
الض
allah
عق
##ime
##رجع
نتا
mn
يك
##روف
نور
##مس
saha
وف
روحك
at
##ابات
##نان
زع
عاش
##ist
##بط
حاب
10
الاول
##ub
##co
قلبي
اكبر
##واج
dj
##اته
حم
فيهم
##هاش
صباح
##وووو
لاي
##تهم
##endi
##سمع
##ذب
##غم
الاب
don
الجزايري
plus
##ماء
شعب
ga3
##طور
نب
منها
avec
##der
##كيل
##قع
راهم
##ouk
الدنيا
##احب
##mo
##الا
الحراك
ير
mah
تعرف
##ure
انها
yak
بيه
حول
المع
bo
كلام
تحت
بغ
##🇩🇿
زي
##فين
ye
الحق
وجه
da7
بر
##لاة
ri
خرج
المست
##فه
that
سع
##ارات
الصح
ay
ser
العظيم
داع
##go
kay
##تني
##hem
##ktni
da7ktni
عي
##قه
##ill
##هما
##قال
تلق
##oui
##تنا
nhab
بها
##يري
##ران
##ati
##لنا
ياخ
🤣🤣🤣
lu
يجي
##اريخ
##tte
فان
بنت
##ضر
3leh
علاه
3endi
##هدر
حك
وفي
النا
##gi
الوقت
##خب
بدون
##ᆼᄋ
در
##اما
##قيقة
##ستور
ja
##aya
##ide
الرا
##مجة
قوة
##ادر
per
ke
##حو
خاص
باس
bled
##اكم
##hamed
منك
##ديو
##bah
##صف
رس
##ple
جميع
##ard
sah
##طيه
وكل
##قدم
##نسا
mak
سبح
##med
دولة
not
ود
الفي
احت
tout
تر
##ith
الدين
جدا
##لمين
##pa
داي
##😂😂😂
go
##wah
##ضة
##lina
##ini
md
##ــــ
برا
سبحان
##روك
شر
##نوض
منهم
البي
##كس
😂😂😂😂
احسن
بلاد
عادي
بيها
نشوف
ههههههههه
عل
احب
vo
##ens
ثم
##سبب
##ye
meme
##ظام
##يبة
##ین
##ate
ور
##rou
mes
##حش
##hal
نتاع
راهي
عد
##اول
##ille
##au
##ذكر
##rah
lik
##لاء
##jib
##كا
ber
kan
تعب
algerie
min
امين
##بو
دخ
فع
مغ
mou
##اله
ac
m3
ly
واع
دو
ندير
fait
##20
mal
mu
بو
##اهل
##ارج
نعم
this
##ونة
##با
جام
##ثة
سم
ذلك
يعرف
مليح
##han
##فا
المج
##راه
##ada
فوق
وط
##قات
hb
bar
جزاير
##ance
كيفاش
dz
والا
وسلم
عندو
جاي
##be
##خلص
##rez
##ok
##فض
شوف
201
##تح
افضل
##الو
عليا
بالم
res
ولكن
##uk
عار
##واح
##زن
الوطن
والع
المص
يرحمها
yek
##😭😭😭😭
يبارك
ils
اخي
bien
هاذ
##تونا
##ودة
ده
fe
يو
##7al
##لوا
هاذي
##يدة
hhhhh
فهم
##غة
##مم
لنا
##ale
son
sh
معاك
##حر
##يف
##يات
روحي
ter
غي
اصلا
صد
بكل
##نع
##ts
##je
قص
خلاص
##قبل
نحن
شبع
ند
aut
تي
ممكن
pla
هادي
tou
##ich
عاشور
داعش
##ذن
يسرق
مط
##ماعة
معاه
ve
##قو
##ميل
شكون
##سف
##افة
abd
درا
##تكلم
##واب
اللو
med
##شف
##po
##ene
tak
می
##والي
##elle
ضد
عين
pre
الفر
منه
الماتش
شهر
الاع
##oud
عندنا
خد
##ابع
##rek
##واد
تشوف
هههههه
ايه
wh
##بيه
##فك
##راة
##ولك
تاعك
##per
عرف
dis
##راري
em
يغ
المح
##fe
##hhh
##ياء
##طيك
الظ
لات
##جم
##hek
##ضرب
لهم
mas
اجل
صف
##بيع
##ضا
اعت
اخت
kar
##وات
العاشر
all
##urs
##rak
##ثل
##طونا
الاي
##واه
##ديه
راجع
ته
##ااا
امير
##سه
##قا
شكرا
تنوض
سيد
##خلي
الدولة
##ظم
##راح
##بيب
ليه
الدراهم
##كره
الاحرار
حساب
wah
##uu
والت
rabi
##ديدة
جد
##شة
راجل
العالمين
just
ami
##قص
cont
ga
##نوات
انسان
tra
انتي
##ft
##عر
##حيح
مار
12
طيب
##سبة
##ors
elle
moi
ترك
bz
خر
##بد
رانا
##حدث
vi
##اود
لاع
sam
الاج
##وية
الاسلام
##les
kol
comp
##ضح
##ita
##كتب
##بال
صاحب
يرحمو
البلاد
شف
salam
##علم
رح
##9aw
##منى
with
dar
##eli
##يتك
ﺍﻟ
جي
خال
فى
والس
chi
اين
علاجال
arwah
دايما
##سا
استاذ
اهل
##ise
الوكيل
مز
حلو
##طار
ko
ابن
المخ
##😍😍
tro
##ورونا
عندما
فرنسا
عسك
bla
العام
الجام
هدا
كلمة
نحبك
قمجة
3lina
##iti
der
##ركة
toi
الحب
gal
تبون
نتي
##جا
مه
دستور
الزلا
وهي
by
ريي
الارض
نعرف
عندهم
##كرت
ali
##ssi
شويه
مليون
##aaaa
حاج
##دموع
##طا
##اعة
yekhi
##du
قول
hab
##قف
but
bu
##dj
##اتو
كثير
حوم
لقيتو
##قر
##الية
عمر
##ata
19
موا
##ذلك
can
u2066
ch7al
sem
mohamed
are
##صب
ريا
##دت
##وبي
دخل
##ght
لانه
يجيب
comme
جا
##رين
مسك
##لقاش
كاش
طلع
الحياة
انو
اعطونا
احنا
gt
##فتح
وربي
##wi
الرحم
##وء
top
##man
بالع
نم
3a
ليك
hbib
هذ
##vi
br
##جزاير
##دع
##dir
تعطيه
hadi
حلاب
اللوز
vra
##سطين
##ena
##ريقة
##fer
ايام
ذراري
gr
وكان
##we
لماعن
##نب
##3b
فا
gha
جاب
##يييي
nous
السيا
قريب
##ele
rak
راجعون
مني
##ايي
lah
##ue
يمكن
rohek
فك
تاني
##جه
##مينست
##واء
ميقدرش
hak
##ito
may
زح
شعال
تغسلو
was
الاخر
وشمن
مري
##شور
##فلة
##اكل
صحابي
بيك
وار
##وارث
نست
har
رج
ولاد
لكل
wel
ابو
u2069
##فور
شبعتونا
حبيب
##gn
نحبكم
كبيرة
السعو
كنا
بدموع
##انون
##فرج
##اللهم
الانسان
##ouf
mahrez
لمن
المد
##one
طريق
##rrrr
اختي
fo
##ons
maz
ghir
لخ
njib
بسبب
##ليك
هناك
يخرج
صغ
تاكلين
bas
فيمينست
يشفي
##الع
##ناش
عاد
حومتك
صالح
انتم
يسرقهم
والح
وات
##بعد
##وله
نط
us
دور
لكم
خرطي
نفسك
خلق
كلش
##ليش
انشاء
##انت
##ونس
يهدي
##ليه
nta
مصر
##عية
ني
m3a
السي
بالك
الشر
##ايق
##ssa
زلات
حسبتها
واخ
##وقف
الكلام
رجع
##زير
كف
##21
cv
kam
##معة
t3
##كمل
##iiii
القلب
واشنو
ههه
suis
متلقاش
##قب
##لامي
##اعد
##ins
ونعم
##روب
jour
sal
lt
hou
##art
لعب
الكوارث
الانت
السلام
##lak
مين
##فرح
ولو
الاش
##ربة
cou
##lou
بشوي
رييس
المسلمين
m9aw
بيت
aw
tem
fto
الخاوي
جديد
وكي
خل
##وتي
سيا
شوي
##ram
امام
واح
ftorek
##اير
اخرى
عندها
av
##ديم
حكم
ابي
##طف
##bar
عايش
##تمع
الاف
رجال
ملا
yakho
قات
##لوم
u200d♀
##كلة
##حين
##sk
rep
لج
لد
app
صار
يجب
ماع
دع
##ays
##zaf
تجي
##bo
مافي
nhabek
العرب
هوما
##🤣🤣🤣🤣
hamdou
داير
نظ
سلم
مل
بما
##ونه
العلم
##pi
الموا
##ايف
اث
bs
##lilah
ken
##لاه
دين
والش
dit
يروح
##صحاب
حل
كلها
نفسي
##تب
زيد
jo
قالت
ghed
sont
##ast
##لد
bra
عنه
الصبر
khati
الرجال
ماش
قط
##زع
التح
ti
##خرج
faire
مرت
ارحم
بني
يشوف
##oub
ma3
##zz
##kha
##ايه
##بك
##ᅧᆼᄋ
ينت
تروح
وام
قالي
fin
فلا
العربية
##يين
pers
##طق
##هههههههههههههههههههههههههههههههه
العص
##اهد
##ome
قالو
واس
##راد
ولد
##نام
بخ
الحك
##tter
m9awed
جات
nt
##اضي
نفسه
الشخص
##ضاء
بالن
##توما
oui
راس
##ريت
##شوف
حياتي
tbah
الفت
رغم
نا
##سيح
قر
##ناه
##الى
##حن
om
##ᅧᆼ우
##ry
##وهم
##orm
##ereh
walah
علمانية
##بين
##وجد
مشي
جنا
##قيق
##لله
##ᅵᆷ
سلام
##cu
##قم
مف
وير
بعيد
تخرج
فات
##ida
##are
hamdoulilah
المو
##هة
##ضية
##all
##اتها
hu
تعلم
##مني
##فف
trop
pet
##ريح
مهم
خا
##ong
##واف
##الت
##بيك
طي
ont
قدام
المغرب
الصف
سمع
مام
##زين
عسكرية
gen
فطور
bereh
##لقة
##طان
##mou
كانو
واب
##dr
ghedwa
##رجة
مدنية
ياك
بار
##9i
نها
##si
##eri
##طيع
##رز
ass
##زيز
راسك
تا
وعلى
والي
نو
##اره
##ظة
بج
##لوك
دون
تعلي
دراجي
الوح
ras
##use
المنا
vide
ent
الصلاة
##iri
طول
##روع
eta
ng
##خابات
##ame
##ید
##بير
##aba
##ood
##عمل
dire
have
انهم
##اون
ديما
##طني
##صي
موج
##يران
##ona
يرزق
like
زعما
قلوب
##لبة
##fo
مسل
##lm
##بيا
🤣🤣
##int
za
rou
##ذر
##era
مازال
##ouli
bzf
##ven
صلى
##سين
هكذا
باي
##ose
your
للت
ok
eu
##حمل
سن
معاهم
##صار
ms
100
راكي
ku
##llah
##حل
زه
##tek
يزيد
زاد
صحيح
kho
##ook
يخدم
fan
##دل
ed
##خخخخ
وليس
##ᅵᆷᄋ
طب
يقدر
التعلي
العم
##ولا
non
##olo
15
##ll
##ريك
##ete
الواحد
سر
##cho
كيفاه
##men
حط
bn
بنا
وهذا
##واحد
##كش
فلسطين
ههههههه
التو
لش
بكري
ولم
hirak
l9
اعلم
##uis
peu
قب
خاصة
وبعد
فينا
##ᅵᆷ영우
##هداء
##وفق
##ومي
لس
##بيل
##ber
خص
فاي
임영우
algerien
اقول
##mm
الهد
بالت
quand
##ابل
كار
##تين
##سية
جماعة
hal
##had
nas
للاسف
##ko
الذين
##oooo
##راف
##🇩🇿🇩🇿
##يته
##صد
##هاب
سنين
يلعب
amp
##sta
##فون
khir
##هذا
##ناة
##ble
بنات
##شو
has
sab
ver
##lal
يار
pen
##ايب
که
ze
بغيت
mus
##شان
nti
معايا
##سلوج
ورا
##بب
ديال
##9a
عمل
##no
كله
صدق
##هات
حياتك
##lar
##هور
الجيش
##حه
##ليب
الاص
صغير
ابت
##kan
##يتها
person
##rat
##oma
##امن
11
af
دراهم
zou
##خي
##راش
##حيل
يدي
roho
نروح
##وضوع
درت
راب
ونت
##ity
##ます
##ayer
##ces
##لاث
عز
عيد
##ud
##♥♥
واذا
رسول
طبع
ويع
cr
كلم
##لاش
فار
##ساب
مرض
dr
للع
فو
##bes
##ke
حرام
ليا
عيب
لماذا
امي
دول
##لل
الشع
يفهم
بلد
##bou
##ربح
احس
##نك
كريم
mazal
hada
دم
##الف
##نون
if
##تا
inter
عنده
##lat
بخير
far
mil
شيفور
بب
car
كثر
##ung
##mes
##است
##ارع
tah
##انيا
##con
##راو
aku
##7ed
خي
cette
الامر
##jour
##طال
المنت
##leb
sp
القران
عمي
العربي
30
salah
##isa
##افية
ضي
يسم
صدي
tous
##طيف
النظام
الجزايرية
ramadhan
هكا
yg
تولي
via
جامي
اكيد
vie
##ank
هذاك
##voir
##zy
##ورو
fel
خدم
لالا
##ﷺﷺ
hahaha
راهو
##طشي
hai
فرح
dep
للح
عنا
ارض
دوك
🇩🇿
l3
##الات
machi
حابين
اذ
سبب
لف
##انه
##طل
##هب
##😁😁
sy
##تار
att
##صلح
قطر
السيد
كورونا
##فاع
##ila
##ساء
video
امر
رد
اعط
خلا
وغ
بوت
##زو
فسيح
##lek
##عين
##ally
##زه
يال
اللا
##kkkk
##ديت
ساعة
tal
they
##واي
khti
ray
شاف
😭😭😭
lui
up
kn
مكانش
ربنا
amine
قدر
قي
رجل
جل
##جلي
##فلي
##edi
المق
##نوب
##توب
cha3b
etre
##احبي
wla
##ade
pres
za3
kima
فعلا
##ذاب
مسكين
##ish
tf
هاك
##امات
هيا
##وره
ترا
سل
##اصمة
شباب
للج
yah
day
han
نك
##تما
الاق
للش
بدا
منت
##ولنا
what
##قين
##ووو
##ديث
comment
فاهم
الحل
ايضا
##idi
##قطع
ليش
##ريه
الرييس
##ذهب
واحدة
زيت
ضحك
حين
##فى
hhhh
انس
اسب
فيا
باسم
##خاص
##iste
##عيش
الايام
say
##وريا
##راس
##ould
فيكم
##راحة
reg
##مار
الات
جب
##iba
نورمال
##ناها
##اتهم
##عيد
nou
##up
سما
dan
yer
##ستر
bez
كذا
lm
##jo
##وجه
مول
حالة
##cer
rien
باذن
##amais
يما
صوت
##nya
الجز
منو
فض
احمد
😂😂😂😂😂
##نم
##akh
قالك
يبقى
##نسي
##يرو
##gue
الرس
er
مهما
wor
لاباس
##ink
##يتر
الاه
جيب
نز
##yy
ثاني
اصبح
حاجه
##فيش
hna
##يط
##so
عمري
محرز
عال
##تكون
##7a
الاولى
kal
##روض
aussi
مثلا
##اتنا
قادر
اعرف
صحاب
##sse
الشيخ
##نسية
abdel
اض
زطشي
البار
za3ma
وهم
بيهم
##ande
dy
##اعر
ara
خارج
sha
تنت
جيت
راحت
تل
ختي
##ويل
##خلو
محت
راكم
الزوالي
cas
##ندي
مره
روحو
lib
##توا
u200f
##حس
موس
##قتل
ابدا
الوطني
sar
الموت
عجب
قلبك
الصحة
##همش
##هاد
يريد
بارك
##ايلة
##ابقة
##عات
لص
win
العلي
##فيد
حر
##able
##جيب
lyoum
سنوات
ins
😭😭
غالب
##ell
غلط
zit
ton
عيني
صايمه
hay
ويس
جديدة
##dar
ضرب
مرا
دخلت
##رفع
جزايري
fra
jamais
ag
##فكر
ذا
غاية
بابا
سق
لغ
التاريخ
gra
cho
##دد
تقدر
##الها
ويت
كام
##😂😂😂😂😂😂😂😂
فقد
pt
الكل
2021
##وسع
his
خاو
##امه
تدخل
3lik
from
fl
##dila
معاها
رك
love
kat
اقت
ومع
اهم
حسبي
##شم
##انيه
تعالى
##ضيع
aime
##اتب
##zef
##قيم
الجميع
بالح
جز
200
##day
##kon
##ـــ
عالم
تعيش
مسلسل
مض
قدامي
خاطي
حاس
##دوة
يحفظك
##koun
والن
وجهك
##وط
##fhem
id
##دمة
هما
##جز
##ran
مجرد
ach
##ابه
14
هال
يل
لام
لحد
والد
##قرا
##جلس
الوحيد
one
##لوس
##ويا
##روج
وتح
الحال
ياو
الليل
##حتاجش
##واصل
هههههههه
##lama
النهار
##هوة
البق
منذ
##her
bach
يدخل
tbahdila
وليد
يقولك
da3
##يادة
الراي
بسي
faut
manek
임영웅
##issa
apres
هه
##یم
##وخ
كلنا
##ler
quoi
3and
18
التع
صور
بالق
ama
انته
##رع
امس
##ence
السل
كده
شه
نه
nik
##راج
قرار
##ذة
##ينه
الزلابية
##dy
##てす
خيرا
ple
السعودية
كث
الذباب
لقيت
##حتى
حض
امري
##ظهر
رزق
يعيش
المشكل
##ction
##حتك
نن
المف
طبعا
القد
الوال
مبارك
merci
ميت
##زية
##تكم
ib
قعد
3likom
طلب
الموضوع
##ايمة
##eni
طا
9ar
ياب
##زان
##سبوك
عص
##والله
عارف
ret
تحيا
طرف
يعلم
yas
pu
##جن
البلد
تقولي
##ww
##طيح
مكاش
##koum
تزيد
العب
##øu
حفظ
bad
##يرا
والب
تاريخ
حز
خاطر
##las
##لكم
اولا
كا
##ذك
موت
ساك
زمان
##اهر
ps
اور
للب
ada
hhhhhhhhh
##ناك
مبار
##ويه
##وقع
her
##الق
مليحة
نتوما
##way
kleb
ماتحتاجش
اشت
يقولو
ڨاع
##allah
معك
##اده
بينا
ارب
##ولها
bah
وطن
دعو
dir
##mar
تاعو
الاستاذ
دروك
##nes
جال
##غط
سام
فق
تفهم
المراة
##eng
برو
جميل
bal
##لاع
باينة
تحكي
ماك
البر
كانوا
فس
وصل
لط
بلاك
##ابت
new
##قيقي
bes
sin
dec
##mil
##نسى
هاذا
##ants
والق
فعل
شيخ
لاعب
الرو
هت
##ld
ماشاء
ts
##7t
زواف
##ph
##واش
##itu
por
##خت
##ih
##دخل
##لون
sm
الرجل
النار
تبع
##فار
اصحاب
cor
nah
سوال
##لان
out
الدار
##ويت
##قيل
zi
##دينا
##lem
الحم
##داد
حتي
##lim
hom
yo
يديرو
##lk
يوفق
ur
##challah
الاد
dah
##مك
اجمل
متقدرش
تعبان
صاحبي
مالا
##oua
acc
##ثي
twe
كاس
صل
ويح
fat
داخل
الطريق
nour
العمل
ويب
sho
dia
##ابي
اكل
##iki
9ah
##md
##ves
باع
العراق
قداه
mt
kif
edd
مشكل
pi
يعت
تنا
تهدر
صعب
##جاح
##شت
bezzaf
##ty
ويا
2020
sadi
ای
ذكر
مبروك
ماهو
##بعض
16
الدول
ماذا
rani
##cr
##ريف
##bouk
did
يز
##ente
##iii
##فليقة
ياخي
والص
##zid
عاج
بيد
##houm
##lab
تزوج
mad
hy
سعيد
will
##وين
##دام
##rad
etait
##ليم
##سات
الكريم
we7ed
##led
##خدم
##ونك
nch
##لمي
jou
mel
##يتش
zouj
##اسي
تبقى
اجعل
خاطيني
حبيبتي
mb
##ميلة
المط
يعطيك
القب
وشبيك
##aka
مريض
بنفس
##كنه
##اطل
##ـي
imp
ويجعل
ارواح
حيث
da3ich
باين
##خط
الباك
##نن
##cine
محب
الاحت
kafer
الحاج
##روش
sel
حمد
bezef
##شق
hbibna
##حات
nefhem
zitout
خب
منكم
ces
تخدم
تز
##ازي
قالها
اصب
tweet
بالس
##ny
بلادنا
fou
جم
اننا
وتع
##ord
nad
##💔💔
##دون
alors
##ايح
ik
مخت
##يام
##hou
##وذ
محد
رحمه
##باء
kr
off
dou
ليست
tres
##mir
3at
##قطة
##فاء
بري
الخاص
خدمة
##😅😅
good
raj
الثاني
هاي
##uf
العصابة
yet
التص
جو
sk
كره
##غرب
##اشي
حبيت
علاب
tb
##ظي
سيدنا
hhh
##ديل
صورة
عبر
البيت
hambouk
##ارية
لبلاد
الحقيقة
المه
ديري
7a
ملك
رياض
##كرا
وزير
زعمة
وعد
##nd
بالف
خبر
ومت
##فيه
متو
tar
##aaa
يفرج
قناة
az
حيا
fer
sc
##حدة
ليوم
اولاد
met
جه
خس
##رفة
اليك
##ريقيا
الرحمان
فن
اقل
##جاب
لقد
##نيه
معانا
كتب
##tou
##ظن
twi
##امر
لانو
الاقل
##iment
ala
فريق
تاعي
khali
##ない
كلهم
##یر
فالم
lk
وحده
لاح
##بلغ
معليش
نقرا
vrai
sadi9i
رحمة
فلي
القواد
سال
##فن
gi
باقي
يطلع
صب
##ديا
bay
u200d♂
ماكان
این
##gg
kayn
ans
##esh
##اااااااا
##eda
gens
##لوش
اساس
##صور
واست
pol
cla
kad
##امت
الجامعة
طالب
##ولهم
##اوز
الكثير
##tif
fiha
ge
##لوه
##hak
##ema
##صبر
يتم
ban
يوجد
كتير
um
play
##عام
الملك
##غر
زين
وزيد
ever
الهم
المم
العق
ليلة
رحت
##って
يخلي
يهديك
wach
الزلابيه
9ahba
جن
صحيتو
get
والك
##روط
wala
دنيا
cu
عدم
يرحمه
##ومون
وض
##نف
اللى
って
##لامة
##دافع
زهرك
##اث
جمال
##gha
##edd
علاقة
داك
ماما
who
##جار
lb
aya
yang
##لبس
now
pra
جاء
##يدا
lol
##ayi
خرجت
monde
bab
##ison
mech
بوتفليقة
mdrr
اجمع
ahmed
وعند
دج
يعطي
##ond
نكون
vu
3am
##طية
حش
صغيرة
عدد
كش
##الحمد
##راض
##aki
bella
##قسي
time
##لاك
قاعد
mem
##ars
fik
خلال
lebes
##كتور
للك
كثيرا
ماني
##ورد
##pt
3atay
ns
الحمدلله
dem
الرياض
##od
fil
القدم
13
##hm
mor
فش
tt
pho
وو
aa
حسبنا
17
بـ
للي
##توفيق
##cef
grand
##فير
معه
حسن
##امين
فخ
##مهور
تسم
الجمعة
الجم
##فينك
ومش
##ومن
##حى
##った
nass
ولات
##ange
sim
##خة
افريقيا
##بات
##cial
استغفر
##غلط
pou
سوف
حقوق
##كيف
t9
واق
الحكم
##した
فيديو
النبي
تحية
الامور
لاه
##ياد
فهو
##ree
واليوم
يرجع
اللسان
يتع
our
nak
عندكم
##ارس
peuple
طبي
انق
الجزايريين
ele
##hah
الاخير
##حلة
mr
تان
ima
mom
احترام
##nee
ses
tes
##ante
##قية
خاطفينك
هوا
fran
##افظ
تض
سورة
يشافي
هدي
##كري
قلي
kel
حياة
##دوا
صلاة
توفيق
ph
الحي
##ase
سير
##ind
##cher
op
##خذ
شغ
المال
قري
اخذ
##ieux
##فاق
الاغ
##يير
nhabkom
ماعند
best
السنة
twa
وليت
##eur
##فعل
##🙄🙄
##ika
##طين
pays
##حياتي
##vid
ابناء
##ui
لين
العاصمة
fois
جمع
يعمل
ji
##جرة
##ner
sans
ob
ودي
اعد
وجود
تقرا
ثلاث
##😘😘
22
tab
##ents
cl
يضحك
##😢😢
رايح
##رضى
الصفحة
اون
beau
قولي
dzayer
والج
اوي
نلق
she
##فال
##ارض
##ولد
nhar
ادم
##كار
ملاح
said
some
ss
الراب
##qui
leur
norm
الباب
عباد
كلي
##fou
##كرم
بالش
##كرة
يرحمهم
wat
eddine
طفلة
يلي
##روس
نوع
##عود
vot
صحب
ياكل
rem
كرة
sor
واللي
##reb
25
الاك
قدم
ادا
##وفي
##طاء
##حنا
how
dra
ترى
التس
kab
##🏻♀
juste
##uh
معند
يستر
##🤔🤔
##ghi
اهله
الدرا
cher
عايشين
yerhem
يحكم
علشان
bonne
اتمنى
ذاك
واي
cro
nes
طال
بشكل
والف
del
جناته
البع
bt
##عان
##ouma
تلك
##ديها
##min
##اسم
موجود
فكر
parti
راسي
كر
##طقة
نبي
dro
الشهداء
تجيب
50
السود
مسابقة
know
##bat
عج
بعدها
تبان
توا
##ques
تحس
الصباح
9ar3a
##ys
رواح
انش
ولاية
thank
وقد
تفرج
##yo
##から
##fin
واه
eh
##ارق
للق
##pr
##٠٠
##lic
##اقي
##عون
الخط
نسمع
الفل
##ايية
غال
##ult
برحم
part
mdr
المجتمع
العسلوج
ميسي
اشوف
##بيت
وتو
##tar
##endre
اغفر
يلا
الشباب
تلقى
about
التج
more
slama
قتل
##جاز
وضع
سيدي
yar
مسلم
twitter
##جح
يموت
بيا
قاد
21
##ano
يهدر
##ماج
##ركات
##هادة
اكتر
اسلام
##ويس
eli
##ling
الاخت
الزواج
pri
##طه
##اسب
بالنسبة
ava
اسراي
##الث
الزين
col
nos
واضح
zeb
سو
##افه
ارت
الجديد
عس
عنها
##نامج
bro
النها
يبدا
درك
صفحة
نغ
منين
وحنا
اللق
امريكا
وغير
##دوش
##ابا
##فات
الماء
احم
طريقة
prof
مستوى
فكرة
يولي
##ule
منشور
كدا
تغير
المنتخب
ini
##حية
wi
فرق
passe
القايد
دق
##عك
❤❤
كمان
ci
##asa
خلص
deja
ذي
بلادي
lam
##lad
تقبل
##ورك
##نيش
نظام
galouli
##عمال
hbibi
ولن
##cou
ويغفر
والسلام
##وول
الحس
بلاص
وانتم
العمر
kon
تاخ
##حترم
حص
mab
لحم
cer
النساء
24
lar
النفس
##حكم
والحمد
##hhhhhhhhhhhhhhhh
ila
##بره
##ibi
تلعب
لانك
بز
شد
##فضل
fih
##الهم
عمرك
##فاي
##abi
##ضب
bat
الفاي
لهذا
##wal
عربي
##cc
##انب
live
##حبه
محتاج
##لمك
##bb
##سيل
القر
شنو
غادي
##enn
##ميم
##jou
فاش
ناق
##هيم
##homch
##ando
fu
9al
##غان
والخ
المر
مور
ارج
##حان
##ges
كلا
نر
##bre
عنك
يوما
##تحان
bsah
notre
نعمة
فما
##pat
##tta
خطرة
##حاد
هادا
بالي
يصبر
jus
##عادة
##فرق
وث
ft
quel
##mia
دزاير
donc
##عوب
##oll
لكان
##ميز
يام
اصبحت
معا
##ركي
dev
كتاب
##mad
sen
تاعنا
happ
##ero
انفس
موض
رقم
##🥺🥺
wahed
صع
ياح
##ın
##عا
##قاد
ممن
يجعل
40
نسي
##حط
المتو
##ابلة
##تيه
الساعة
القانون
لينا
تويتر
##ires
##بيق
الجديدة
##bal
وسط
##عندي
##ثه
القي
مشروع
تتكلم
الانتخابات
when
قيم
normal
##راءة
##lie
vraiment
##يرات
##توش
قانون
##بق
نصي
##lu
##لمات
##nn
كبر
السوال
##تلي
##hor
##حبا
##core
رم
الفيديو
him
##hd
niche
تونس
##افر
nie
يهم
الدع
peter
للو
00
بات
##😒😒
nao
##هدرو
##مام
##ناي
اجمعين
##واك
وبين
##zo
السياسة
##ible
يخلص
howa
##ress
##وح
##lik
##شى
جاو
##انو
##ناق
اجر
##ديمة
كال
##هاها
die
##iens
عطاي
##mer
nd
##نق
لانها
برش
الفريق
ثق
any
##حيا
خمس
##فهمتش
عرفت
سك
الكبير
##eh
##7ch
##ونها
السر
##اطر
##عرفش
وقال
exp
bir
contre
هذو
جع
حرف
جما
##isi
mli
yes
القط
post
كلامك
##بيض
قيمة
ghi
tan
ونحن
الحر
احلى
##وايج
اهلها
hel
##ref
##ino
ترجع
خلو
##ua
امن
ya3
صبر
##شه
شيي
compr
عيش
ويقول
غدوة
معنى
##طلع
##اعدة
lou
فطورك
يرد
البحر
تسمع
الشه
##ake
##قلي
وصلت
##راع
##ادية
وسي
##vent
ليها
😂😂😂😂😂😂😂
يطلق
##كى
قام
وذ
قليل
##سيا
##المو
##🤣🤣🤣
parle
المصري
حا
dial
aux
##عع
الحكومة
##زز
##gal
##تيش
##ition
بدل
المواطن
حبيبي
ndir
الاز
ir
##ريمة
tay
##الكم
hon
لكي
##اطة
تاكل
مساء
m3ak
العين
fais
ويش
##جات
نجيب
تعليق
cal
##55
##ستي
##ml
##اجي
##طوط
##wayj
bil
🤣🤣🤣🤣
##vre
السبب
chou
t3ayi
ba3
کی
##ffff
##my
ليل
دارو
يتكلم
tel
##ssama
##bab
##ای
بحب
##فرة
##عاد
##99
ماتت
عرض
l9ito
الهدرة
##ركز
france
مرات
y3
نسيت
هولاء
##بارة
##oc
ty
النوم
##rahim
##ker
الاو
##ines
والسلو
##gne
سطيف
قض
##يره
##anger
mim
##حيم
##ado
شا
باك
يتبع
##عيم
fem
ماتش
peut
##ساد
تقد
امث
##احة
المب
الفق
##did
##حث
المي
ويد
ايش
##لطان
ker
طلعت
sara
tk
الحين
##ras
الحد
الصورة
تركيا
بنادم
العيد
gre
الاعلام
hhhhhh
واص
طوي
##سكر
##ba7
اغلب
رش
تدير
##ياس
جميعا
سهي
khou
والسلوان
معي
حسين
الواقع
bet
نوض
عمرو
##اكن
pub
##اتكم
وخلاص
قتلو
n3
الاجتما
اسراييل
votre
ايها
الكلمة
اعوذ
face
بالص
##لن
fra7t
##uit
للد
every
ten
فقال
reb
##خس
##ربت
واد
##❤❤❤❤
##ابعة
gro
personne
تريد
##ونسي
mani
##لاي
inc
فتح
ياع
##ورت
موضوع
##صاص
##fik
القاد
كو
##ori
##lay
شويا
##ends
##ارت
##💜💜
##ومه
الجن
sek
تنس
##rage
u2066❤
الزوج
voi
مما
##حبة
نزيد
##قق
##mane
##ople
##جو
الحلو
##isse
والان
مظ
##رشح
##ربو
##ther
ترام
رايحة
##خاف
التف
البنات
##واع
قصة
##ههههه
الرد
المسل
حقي
اخلاق
رايك
7wayj
اللاعب
المنشور
nan
##tha
راها
##ريبا
##ثبت
##ماضي
meri
wela
شعور
##oh
a3
يكن
انتو
اللغة
people
##بيد
##nal
##tkom
الدي
التمني
##lia
super
صر
##رحمة
##vers
zel
##بان
##فوا
معنا
الفرق
الوضع
فم
دك
##سلام
بقي
تلف
##ार
ete
##ابق
famil
جيش
خاوتي
اراد
tha
باباك
n7
تكسر
الحرية
حدث
encore
##لته
##oot
الامام
##اربة
هادو
##شن
شوفي
يسمع
يحفض
لدار
واك
😍😍
them
تمشي
زواج
الوطنية
##وسف
اسمه
يضرب
##تل
الرق
مدير
يض
##امح
##هام
حرب
قضية
الخب
red
##mis
##مون
##زاد
##عمر
##rin
عشر
سه
##ستان
صلي
arre
اللح
real
net
##bek
##جبني
##رتش
ale
كمل
كنزة
وراء
بدات
##fs
mahomch
dyal
دعم
iss
##ثق
نض
##ﷺﷺﷺﷺ
##ely
##وبا
##شد
##شرة
back
spe
##car
##edna
##tir
قاتلي
##vie
##ريس
##jours
##اكد
##😑😑
متى
##ايك
تعت
dak
ونا
sad
امور
المبار
##تس
##zou
bł
البعض
dja
rasna
js
##تلك
trou
نفهم
##یت
##امعة
##gra
##ذل
##amel
meille
شرف
توحش
##عار
##mine
الصالح
الملا
##ايات
التط
##وسو
3ay
ساه
امل
لبنات
mere
##oni
##لوق
تحط
بود
تاج
ضع
الاسب
معت
الكت
الحقيقي
فطوركم
sat
دقيقة
##fr
امك
قلوبنا
الخلي
تدي
##كنت
وها
proble
##une
##عبة
هداك
dor
##جيش
##مير
##برد
think
بهذا
تكلم
هذيك
som
##ount
حتا
##حمي
##ach
laz
##tions
جدي
زمن
عاود
تتو
الحلال
نقولو
##صاد
##ليون
##لكة
bik
##یں
##سد
تموت
حبة
المرة
##اكسي
##ちゃ
ep
##ريدة
##كور
ربما
pense
فين
مقد
النصر
sir
التعب
البط
##ory
##اقة
مبعد
##عند
##ouch
التمنييك
شم
فج
المك
الطلبة
مثواه
ايران
تخل
##yom
haja
##الحة
##جعلها
خلف
كبار
miss
شري
##eeee
نخرج
##صص
cour
وتق
انما
😁😁
مستحيل
يقرا
شخصية
mk
ياربي
مالي
كلشي
بداية
والاخ
بالج
يتو
##11
نقص
##elo
😂😂😂😂😂😂
sama
23
تضحك
ههههههههههههههههههههههههههههههههه
##عنا
##lan
سوريا
الحلقة
الاهلي
cham
sera
كوم
##نح
معرف
شابة
هاذو
##yor
need
خطر
##ناو
ملت
##بري
شييا
char
tch
الماك
تتع
الامارات
##ziz
المفروض
##جيل
##ound
صغار
واحنا
##yi
مليار
بالاك
نقولك
اسمها
bd
كذب
نخدم
akh
قالوا
temps
طبيب
##して
حن
البشر
zah
##هرب
##ations
bg
ياتي
##ليا
يتح
بالد
الجواب
تحسب
يخي
تبكي
##رررر
##صير
التش
##بعث
بلغ
##عوا
سرق
##يبه
فرصة
rass
way
احي
عذاب
الشعبي
tl
العسك
التن
##لاقي
وتت
باطل
##نيك
تذكر
اصل
##لوها
مشاكل
غيره
الامة
nn
din
##لاف
الحرب
متع
##ites
خم
الرمضان
بی
##raf
ممت
n9
##jr
##oune
بلاصة
##دى
يفتح
##وما
there
##رون
##lt
##شفى
ينا
يلق
kayen
twa7ch
algeria
لاخ
تحكم
depuis
##rab
اخو
bsahtkom
الثانية
toujours
الحرام
oh
تجعل
فب
bech
نعي
respe
حابة
##ـه
المسوو
##افيه
##🔥🔥
شكل
معاكم
اسال
ud
##داف
ys
##وصبع
ارد
##aire
##ليفون
للس
نديرو
صديق
##راما
ia
يمشي
ani
البد
wak
##قته
##iter
voir
autre
اليمن
##ــــــــ
للجزاير
##طير
ess
الحاجة
ez
ترامب
حكاية
واتوب
بعدين
ran
الفجر
nk
##tic
##اشرة
supp
نهاية
عهد
tet
افت
ديرو
##bel
ll
sais
استحى
السلطة
مالك
##ابو
البش
سمعت
##ياه
##قاط
##👏👏
الطب
##ودي
##وجي
قاعدة
تعطي
oum
slm
طفل
##زر
تعمل
الاسلامية
avoir
##😭😭😭
match
اوم
هات
##جاج
لحق
twa7chtek
جميلة
يغفر
##par
moh
##فية
نجي
هههههههههه
سواء
الولا
##دها
التوفيق
##ـا
ela
why
ضرك
لاني
عمرها
يهدينا
hadj
##داء
واجعل
して
błedna
gar
sto
##اهرة
algeriens
xd
للخ
بالب
##dil
chez
gue
int
مدرب
##رط
بينات
##mat
السماء
مدينة
##الج
##adj
##if
صو
وشكرا
hiya
الخارج
حقيقة
haka
b3
##اهي
mis
لانهم
تطلع
بمع
den
fir
حراك
##فيض
بوم
##😹😹
inf
##hammed
##فها
##ااااا
##ollow
رضي
##ese
نورم
فالح
القدس
bed
cel
##نش
##rait
الفساد
##یک
##بقى
##ريو
يكتب
##ميس
##pu
##جليزية
pat
##صا
##line
##هران
نشالله
dok
بهد
سخ
الوالدين
##فري
##قدة
ويصبر
rev
##خله
##ليها
look
##رده
الرمضانية
##27
##هورية
##جعله
kolyom
دليل
لذلك
##باع
dm
##سيون
توك
الراس
دعوة
deux
دقايق
##اخر
##رونا
##far
القلوب
شعر
##هير
الراجل
bek
##gar
يشكي
wsh
ليهم
المري
ماهي
too
##روه
القرار
الطيب
مرحبا
يمد
ang
aff
صحي
##رتها
سيري
premi
انني
##hach
entre
😍😍😍
leurs
autres
bul
kou
سنه
##مات
##gy
رفع
##رفض
##its
توف
##غيير
ليبيا
😭😭😭😭😭
اصدق
الشهر
diff
اقسم
يرزقك
zak
بتاع
vais
اسي
##لاثة
would
##ومات
hed
sti
##یه
souha
##gan
##2a
الها
khe
##صال
tam
see
خرش
cre
##ᅡᆫ
##wk
##روق
الكرة
##موعة
ظلم
##جون
اشهر
ارا
##شل
islam
الرسول
الواس
##🤣😂
3al
عني
فهمت
بذ
##تت
وحدك
الخدمة
##ليات
انف
war
hamza
hat
يكفي
بام
ربع
##جين
فيلم
kamel
##ulu
##uc
لسان
سين
##حاب
خالد
r5
تربح
sol
خخخخخ
##مرة
sid
اذن
ترد
mois
##اغ
للناس
##وتنا
بهم
لـ
##jet
مسكينة
التلف
تبر
##nt
الست
سبع
الور
mm
##zel
##اسة
##مانة
##ايع
ريال
##gr
##ました
##ste
حاليا
شاب
النجاح
الحالة
تماما
shi
معروف
##awad
فلان
فاس
النور
##نفس
##ma3
##نار
##ellement
##سلي
##طول
الاخرين
الزمن
يشفيها
franca
الفتنة
##برة
تحتاج
##mail
لز
##بون
اخرج
amir
##اعات
مسوو
ههههههههههههههههه
macha
بالخير
جر
##صه
وبي
##lach
meh
##شا
يبان
##🙏🙏
لغة
##ظمة
جامعة
جلطي
ضعي
مدام
##يع
##kr
##ابهم
بالخ
العزيز
بلع
صلاح
تكن
وبارك
سبحانه
الـ
ماج
##عى
تعود
يخاف
ولله
put
2019
nab
##gen
راج
ena
frere
##بارح
اسمع
صدام
##rf
تحبه
##den
##veau
فلم
الزم
باغي
##روحي
##زيون
##anya
واج
##ey
##ديهم
الخي
ec
نقطة
vive
##دن
ظروف
تصرف
هن
ميم
هكدا
انكم
يحكي
ورب
تما
ظهر
##بغ
يطول
سعد
##bt
##9t
even
##حلي
nom
##ريبة
ncha
جار
##بيها
##til
##kar
اعلام
الرحمن
famille
oua
rapp
نادي
الاث
معن
ine
بير
يحدث
##del
##ute
ره
الدعاء
السما
3an
##حور
نحكي
حكي
حاول
##ooo
rap
رض
fri
ذهب
الكم
ساعد
اسبوع
وانتي
roh
الفرنسي
صاد
الدم
wahd
فط
وجوه
معلق
dik
حبس
##صدق
للط
يمن
يستحق
hata
##النا
فانت
rana
act
##جوز
art
الاخيرة
جمعة
##اينا
يغير
يعوض
بحق
وحتى
rebi
برنامج
##ady
ومات
san
ui
ydir
تحياتي
ايد
تري
##ouche
المشكلة
##hahahaha
سهيلة
avant
عملية
فرج
##لمان
zelet
اخوان
##chem
author
##oula
##itch
arri
يدور
بطريقة
يوسف
سبي
##ابر
##ttre
mai
اغنية
##ادو
##جية
هدف
aller
حوايج
رون
العايلة
##ader
##けと
وحدي
deb
##tik
only
walid
بور
جبت
contin
pun
ياخذ
برشل
الفاس
قوم
ماجر
##عبد
التق
احبك
يفر
##🏻♂
##ju
##لتها
نفسها
ربك
لبنان
karim
##ws
want
قوي
الموس
لست
much
##هول
الخام
wa7
##اصر
wy
##تيها
got
قهوة
رق
##المين
lma
حاش
نعيش
رف
اليد
vos
كذلك
##رفي
##اند
##ient
افهم
bak
##ظيف
فـ
dh
mina
nam
##خيل
كاملة
المرض
ptd
##aux
##واس
##اكت
##own
يرج
خخخ
##لار
تبدا
##طبخ
ويه
تقريبا
##صفحة
##yle
##رته
عظيم
موقف
اريد
بوج
mdrrrr
vs
##3i
##yat
lea
مشكلة
##لعو
واقع
معهم
متح
تخلي
r5is
kont
نتمنى
messa
بقى
عا
يدو
##ving
شاءالله
حلوة
cons
##شية
والط
بنتي
##angan
دی
تاعهم
##عمه
بجد
الاقت
بث
##ريا
##هههههه
##فسة
الامل
رجعت
الاعت
مفيش
##ينك
نصيحة
tom
خاي
احرار
##تاق
##صول
ترب
##ـم
##راقي
para
الثورة
مباراة
##بيبة
inchallah
photo
yt
تفك
hd
##سيتي
عنهم
ساعات
##زب
##اتذة
تتح
عيط
os
youcef
##طبق
نموت
nat
الوزير
تقعد
زيتوت
سط
main
##وووووووو
##tu
ماء
ques
liber
##ident
courage
##تمام
end
3ar
rajel
##شك
##بول
فهي
نشوفو
##جوم
toute
فيما
team
تخلص
abdou
تقولو
فترة
berk
ide
يقلك
please
نضحك
يسب
الفرنسية
yout
##bs
##endant
السعودي
##غا
fati
maj
فضل
##نها
##يروس
صراحة
##روي
khaled
alle
بديت
##واق
الاحد
مجلس
##wn
##22
ننت
اربع
##ذار
ذنب
##نص
##by
##aye
ابرا
##اطا
سوء
قريت
##اوية
فلوس
haf
تمر
تكتب
##تع
##املة
3lih
##اور
##عمار
بلماضي
ru
##rib
28
ابد
الزيت
##اوش
their
نريد
##یل
etes
اشياء
تنكرت
دارت
جمهور
##ards
مسي
##سام
##com
ny
##53
صايمة
##9ra
##10
وشع
conna
نصف
foot
شن
##توه
تكمل
الامن
##قلب
##3o
##لقت
فايدة
##ks
##زلت
الڨ
det
##طفال
غريب
وتك
##قمجة
##ولية
السياسي
##cy
والديك
يسعد
التعليقات
المعت
##ماغ
يحت
تتزوج
حلم
ويوسع
بسم
##ييي
اناديك
البارح
رسم
حقا
ترقد
happy
##لاقة
مصل
يحط
راسو
يصير
المستوى
##ناعة
##قلال
توج
الخبر
##وانين
##كال
وزارة
##🙂🙂
##lini
##uuuu
انكرت
lil
لواحد
##19
##رامة
ملوا
هـ
##ures
##المون
veut
tg
الغرب
شاي
make
تخاف
وحدو
والام
العقل
تفكر
##طع
ونتا
##صاب
comm
tri
معها
دايرين
قسم
مدا
الجزاء
sak
sie
##غب
##اتم
##ikh
ولما
رسالة
bli
##زيرية
##سلات
##eres
الحجر
mag
انتخابات
الطالب
##たい
##ᅳᆫ
الخز
عكس
وبال
اعتقد
##haw
لنفس
aj
oussama
الال
##let
ملواحي
tas
##you
العباد
حاكم
خوف
##تيك
يقولون
diri
##ru
حسيت
##راوي
حصل
خايف
مباشر
sahra
اكون
##انين
للشعب
##eddine
moment
فح
ol
##f9
##رجال
let
nm
lina
##قام
ceux
ادخل
ريح
3ala
msba7
##rine
##🌹🌹
خصوص
osk
تبارك
##ولين
##قلبي
te3
يستطيع
فاع
##io
##さい
ida
##ريحة
والغ
mala
نتع
##مش
ونص
##ظلم
##ᅡᆼ
لار
ناك
تشري
اظن
الاعمال
bang
مدة
##حبس
وكم
##عدل
##خلف
توصل
مباشرة
الافضل
شهادة
tbahdil
العط
##udi
##😡😡
لاف
اقرب
خفي
##ذف
##ـن
def
pal
sous
دام
##ches
كاينة
عزيز
##كاين
nek
jest
خليك
exc
##بلي
##حبش
sarah
##هن
يحفظهم
##بلو
تاعها
bin
تبي
تفرجتوا
dur
##انات
فالج
grave
عربية
فرا
##cte
mdrrr
مها
belle
الهو
##بحث
##ku
العيب
امراة
شفاء
التعليم
follow
الدستور
النف
##سى
##wo
##cin
نرقد
نهدر
##طلب
enf
علابالي
الروح
##asi
##👇👇
الصحي
ادي
##ضو
##mid
ترج
يصلح
##orte
##quer
meriem
a7
##book
##خرين
اقوى
بوصبع
يحتاج
##ica
وطني
يوفقك
makan
##قراطية
##شين
##غام
غاض
##كك
##ning
apa
##زاب
لول
الشمس
koul
##wiya
hum
##tout
mort
يبي
##سس
ane
##شار
##نتي
##gre
mama
جزء
##اوه
الصغير
tur
طويل
##alo
يشفيك
قرا
كات
❤❤❤
mec
##king
ev
jam
الكون
khouya
نار
يقت
کے
الشارع
veux
حلال
ندخل
bent
##ım
point
##واها
ربح
الني
كلب
بيب
يتك
##ظار
وله
نسم
trans
الصغ
##تري
##كله
وتقول
سيكون
الشيء
وارحم
hmd
lab
##عوة
bhi
##قوا
الكويت
##ايج
big
dima
جيدا
lw
y9
##quoi
galou
##دنا
nar
مون
uni
lg
##ᅡᄅ
maf
الكورونا
الموسم
احفظ
يقعد
lak
tele
vis
حرية
الذل
tun
وفق
مساكن
عبارة
equi
بالتوفيق
gir
احلام
ثانية
وعم
##とう
علب
##isme
##ions
نقل
mam
asma
محم
يقولي
##fd
##さん
نشر
كارثه
بلوك
##على
mau
بتو
##💪💪
المدر
##eta
تسما
osket
وكيف
##برو
نحس
msh
برج
والث
gener
هر
هاديك
##ديق
يقوم
يفرح
ہے
##رمين
وقتها
lot
##dan
anis
##いい
البقاء
ارحمه
قايد
##💃💃
انجاز
الاذ
جعل
पर
rahi
مانيش
##ath
##اعي
##وده
الرب
واجب
##bia
nina
##لح
يعيط
##ريش
##اجر
ماد
يخليك
prop
mieux
##br
orang
haha
amina
نحي
##ouri
الشعر
##toire
lay
الفرد
##نيت
##🇩🇿🇩🇿🇩🇿🇩🇿
3nd
##وام
##ادرة
عقل
soit
##istes
##واطر
الطفلة
صرات
##سون
##나
ندم
##😏😏
يحبو
بسر
parce
##ester
حولك
m3ah
مسم
ناج
الحديث
نولي
##قوبة
zin
##كة
##كنها
طاح
الحار
mess
جهة
بالغ
التعليق
نقدر
جاية
وصحبه
تابع
وفر
##يتهم
##tie
##كرون
كلمات
ger
ذات
البال
lagi
yal
دايرة
وست
الكب
طاي
oub
الاقامة
مقت
قم
##la3
يومين
لبعض
ذك
here
المرح
place
##ادل
السب
يجو
##شيخ
ديجا
هز
🙄🙄
fal
غيرك
هيك
blo
كس
وتش
##wan
قالهم
hhhhhhh
نسال
لوجه
وعي
الباقي
سيريو
تفر
مقروط
##وبيا
l7
يشكى
##شعب
مجتمع
ناقص
الابيض
well
##pl
##الد
خسارة
ry
t7
##sel
العسكر
الصبح
باست
cam
mch
##اعه
##قيات
hass
##ान
lkh
فالع
##دوه
علمانيه
عمره
itu
sv
معناها
تقوم
اية
غدا
##دايي
##ix
##وسة
سور
سكر
90
gol
نتفرج
بشر
##gent
##ash
ينفع
nation
same
##حا
##طرة
للف
مكتوب
خذ
covid
raki
يعود
bh
##ution
wech
طبيعي
جزايرية
موقع
##illa
ارزق
##بها
##tk
##33
##🤲🤲
احساس
tv
blan
كنتي
01
lal
##دور
اعظم
وتس
ref
الاشخاص
##din
سج
تحوس
لولا
الغير
##شكل
##ᆼᄉ
القبايل
حاط
##قدير
مدري
dari
##ايدة
##ديكم
العي
يستاهل
اليهود
سيب
##قاش
صديقي
##اجد
بف
beli
العد
عزي
##yak
##nou
##طط
سوى
غالي
##ناع
tek
برض
حديث
tapi
يحفظها
trava
المعل
maa
اعمال
##سكت
##جاه
الفطور
يبيع
كتر
مواطن
anti
الشيطان
##dddd
بالعكس
برد
##hing
then
اتو
يبكي
##قيت
##ليس
ويق
لدرجة
تجد
تلقاه
جاه
##edj
##ماع
فالت
بحولي
احيانا
##ريات
الكلب
تعد
كاي
تصبح
##aaaaaaaa
kem
كلاب
##oga
##44
##els
seul
##یی
##بيين
والمس
##صو
##صرف
bk
موش
وقف
3n
##ds
😅😅
مختلف
دوري
ann
بوك
ميد
هدر
##غو
##ومنين
ديك
نظر
ياطير
جان
فاك
المادة
السعادة
تغيير
الاتحاد
ek
tho
فه
النظر
وحدها
khal
الوز
روحها
منتخب
mir
##ينها
يحس
##اركة
سياسة
قاتلو
##رير
##ban
الاخلاق
##باه
amel
##اسية
لمدة
رفض
يطيح
اقرا
##حقق
الاعلى
respect
mana
قمة
##yer
حكومة
buat
bb
fans
زم
منعرف
##فتش
يعتبر
المجال
enti
##مانينة
ماله
##xt
##या
عايز
milli
tm
المشاكل
##سنة
bravo
ابراهيم
yk
استاذة
aga
bgh
whi
##لكش
mohammed
صرا
وسم
الاسم
تعي
القضية
life
than
prin
الواسعة
chaque
##ايمان
اولى
fun
روضة
reste
##توى
still
كلما
fuck
wo
##gram
##ريبه
يجري
really
##hila
vas
zo
##mal
wl
اهلك
##rrr
بمن
over
pos
##بن
##mel
##صبح
##رضا
دني
##ارف
ههههههههههه
##oto
##وبة
النوع
eux
pendant
العكس
بالط
##gin
وجل
##والح
وتن
##main
بعث
تفكرت
khoya
lh
##tch
##فاد
##adem
been
##cause
الصحراء
تاب
##ظل
عايلة
##yen
بالو
bout
الشرق
بدي
##eka
tov
syst
برشلونة
##ثيل
##فتاح
##gui
حزب
na3
تطبيق
##illes
شخصيا
##انك
فالد
##ۥۥ
مادام
annee
surtout
nya
اكتب
##سال
9awad
صلا
الاخرى
ness
الجميل
rad
خود
صوتي
##lami
للدار
teb
😒😒
الضحك
##tage
social
خطو
الشعوب
اردو
الجمهورية
gam
تلم
##ماس
طيبة
##oudi
معل
مسوول
##الثة
يجوز
brk
##سبحان
cap
derni
😭😭😭😭
لباس
الرياضة
الزمالك
ورحمة
🤔🤔
القيامة
lel
شت
وجع
وجد
##😂😂😂😂😂
bc
##ouni
bac
البقر
نشري
fort
التم
wan
خسر
راجلك
lang
ذه
يقد
😁😁😁
مقابل
genre
ici
mz
تسي
وراح
##nah
##ider
وعن
semoga
تضرب
##то
الجاي
وحش
##قيقية
للجميع
##heb
عباس
طيح
hta
##war
##7i
التواصل
زايد
ندي
الالم
##زاق
##فاف
nchallah
وعلي
مجال
kenza
because
الجما
عسل
##طلق
##fiane
##فان
##فكير
dieu
شركة
السو
##انيين
thing
##77
##ريعة
##وفم
conf
عرس
##vel
##get
قرب
قوية
##ونية
يرحمك
لحظة
جيل
##فاهم
حكاي
نساء
3liha
##غية
##ms
##ben
السودان
##ضم
peux
يقل
##cun
يسهل
exam
vois
##ez
القاضي
ادري
كملت
##😭😭😭😭😭😭😭😭
##ket
بقيت
ضربة
##عليه
الطبيب
سوا
تعلق
الدور
المبارك
اا
عشرة
درس
سيت
##50
heure
دعاء
عامل
اللب
##فيات
##ـل
الماضي
##enti
اقعد
##لاقات
فد
regar
حظ
نوم
عدو
اخبار
مرتو
خليها
سكان
##مية
##cal
يكمل
الدوري
ارح
تحم
قراي
##ech
ey
شب
##اصيل
قعدت
bus
شمال
##lau
تخيل
pourquoi
باسكو
كويس
اجتما
##ماد
قلبه
##غى
##سته
الدفاع
طويلة
##حته
النص
بون
الجو
##راحه
سبيل
اعطي
##افع
يطلب
3as
vend
first
uk
حلي
شاهد
كول
الخوف
##نتار
hui
ويعافي
##روا
##قاو
رايع
nhi
التربية
##طباء
يشفيه
##cia
صنع
وناس
##عها
##ouh
عايشة
يالله
حدود
ren
بكم
##ياج
##اعت
##ube
كذ
##ههههههه
سمانة
واغ
اموال
ديزاد
nchlh
##فتخر
تمن
nr
الاكل
تسب
ياا
##imo
قبره
الاطفال
التغ
its
##واجه
bts
جمي
##اااااا
kb
هدية
chose
عينك
عرب
##كيش
ثلاثة
esp
صعيبة
donne
##زح
للن
متزوج
##yn
ماخ
##غلبية
نی
##نتين
francais
##بياء
##وسط
zid
##حسب
##💙💙
amin
التعبير
الزمان
aura
after
جزا
کرد
مدر
حقك
##سنط
##فيس
##الكتر
الابت
kah
##ep
##حتها
##موت
##شيء
##وانات
lin
قع
##dam
##yan
##tice
درب
##ᅡ라
bha
فمن
الانصار
بالذ
##بارات
##خصوص
يحفظكم
الطبي
##kkkkkkkk
##اريس
ame
اطفال
hm
ديد
##🥰🥰
game
mek
##شش
alla
وبعدين
العبد
##oulou
しい
اشخاص
عون
##غال
##cra
jay
wk
كوك
راحة
بلادك
يوصل
واسكنه
اليس
maria
##ركه
الفكرة
##اصي
##osa
قلنا
nahi
للام
##اجل
vote
##ركب
##ato
##قولة
متابع
المكان
khlah
##bn
##んな
خلينا
harki
##وكم
mari
الاخرة
tani
دكتور
صيام
سبحانو
صارت
club
jadi
##zar
##iro
ind
الاخوان
##قيلا
المسلم
bis
عدة
##cre
##bu
الجنه
parler
nh
てす
##ـر
لوحد
برحمتك
##سخ
انواع
يمثل
eur
حدا
دفع
sure
etat
ih
##ارو
##ايهم
اوروبا
jal
pan
##fu
##خول
demo
الخاصة
##anes
pic
صحة
##ـت
##ورال
يتزوج
##ظف
##ايش
يااا
##ولى
homme
aja
ina
##لاصة
المدرب
الالكتر
رايحين
مرحلة
##vais
الشخصية
##زات
##ary
##coup
##تيم
الهلال
عوض
##lich
الاشياء
कर
وبرك
نجاح
again
sema
منيش
مجموعة
long
uma
البل
moins
taw
##ـك
rach
ساعدوني
##مكن
##وتو
##ستا
##اهدة
احترم
tat
تاخذ
jab
avez
ثقة
##رجات
الطفل
اللعب
تهد
منطقة
وهران
inv
##🤣🤣🤣🤣🤣🤣🤣🤣
يزيدو
فخر
##ابرات
ديم
كارثة
الحدود
grou
کو
##متع
wlad
##tiv
##dh
##ouna
ميزان
اسمو
sw
سعو
##ومين
##ويات
متك
##قار
##itre
also
pass
قاعدين
##قلة
بزااا
سوق
##رتاح
حياته
##kin
البنت
بحال
مصالح
الجامعية
una
الكي
اللاعبين
##ieur
##رضي
تربي
को
##قتها
journal
lem
##😔😔
معلوم
الوحيدة
city
tn
ثان
بهذه
حج
chkoun
انتهى
الامير
فرحة
##عجب
##قوة
الشرف
الاجتماعي
##طح
والمع
للان
##عوه
##طات
##ede
ميس
u000
##gl
بناء
##7ab
##اثر
##تيجة
##فيت
يسلمك
koun
##ساس
میں
خرا
اهلا
musul
26
خاف
ارها
ظه
لسه
##اهة
##طرح
مزية
##op
امت
فالك
eff
لغير
##واحي
اكتش
ارى
نرج
نلعب
question
jours
arrete
الفردوس
نام
##https
ويرزق
ساب
cheri
فاللهم
كيفك
lha
ورق
ملق
##رال
النادي
air
يرفع
##قولك
##طفى
خوك
##روال
المسجد
num
##pha
نية
##حح
مشاعر
60
سلي
يعاون
ضيق
naw
ظل
ناصر
##زك
##زلة
##المي
الماكلة
##ore
الغالي
##ومو
right
امة
saiki
la3
sami
##خصص
مقاط
tete
تفس
##قالك
##قولو
##char
بسيط
pouvoir
غالط
مستمر
خالتي
يعد
##ways
most
##ira
##توها
##اهرات
##وزينة
politi
##んた
الحو
مثال
سلمان
bulan
yh
##30
##لاوة
المظ
##كمة
##فيك
kak
##نج
##하
chah
سعيدة
lat
##سما
يشبه
بينهم
الارهاب
svp
chwiya
عقلي
##وند
الكار
رايي
page
سياسي
للص
fatima
last
magh
عارفين
very
##지
should
اسوء
بطل
سقس
فهذا
##ريين
resp
##خلط
khalini
رياضي
المسلسل
##ثم
##ream
##اليش
تحبو
میک
واغفر
##روها
الطريقة
ونع
معندي
does
sa7
##ᆼ아
blad
wch
خدام
الحساب
##بدل
compte
ومفيش
tour
##ورين
##tique
مفتو
ليكم
سعود
nb
حاد
مافيهاش
ven
##ign
##نتها
dal
##قاء
##لاج
الابطال
##فعة
ولاو
يعم
الوباء
مفي
وري
المرت
paris
بول
بحي
##ناب
prom
od
vic
تحقيق
صبح
قولو
##ience
فاذا
##حتي
##のて
##سطيني
##برك
##هود
##كمش
come
السلطان
27
تقدم
کار
الثقة
mara
##ثال
بقا
الشرطة
باح
##سلم
##uri
الليلة
بصوت
##هدة
vol
😑😑
tjr
start
##نتخب
الكلاب
لقمة
##iiiiiiii
تند
يقدم
##oli
معد
##نتش
##ضيق
coup
الخليج
wana
##لابية
اعم
فور
وهل
زيطوط
70
sb
الفقر
العسكرية
ثورة
ستكون
ودير
ثانيا
سماك
yd
محل
الثق
ملف
يعجب
yan
وخلي
كثرة
yam
خان
##قولي
المدير
##دعاء
لفر
mach
شكوبي
lia
##وشة
طالع
##ella
اعلى
abder
افكار
نرجع
hope
عقلك
يلحق
خصوصا
sbah
زعل
طف
ورد
تكوني
##زاز
ديت
ومي
يقتل
##jal
تصو
bisa
شان
اند
incha
توقف
الجمال
krah
lim
pere
##yah
فالب
داخ
حياتنا
فري
وحب
##يلي
ياسر
never
يصر
##يرين
ومبعد
حرم
حضر
يهدرو
inst
همه
کن
great
##rer
##rit
حبك
zer
ناض
مرو
##gine
الرياضي
##رها
##ظه
임영웅ᄋ
المستعان
bre
vers
جرب
##aria
##ets
بلو
تتك
ich
سليم
واض
٢٠
##سيو
الديم
beaucoup
wesh
شايف
فص
مفهمتش
كتبت
تستاهل
موسى
news
غس
یک
##zam
##كيك
اقد
عقول
يعط
خطا
سيارة
3ich
ant
##ذاك
وتب
مافيه
##ob
المتوفي
##dz
##ريض
ماق
نورمالمو
los
fami
شهيد
madr
النع
عطيتك
u0001
cra
val
واله
aujour
##يييييييي
direct
##ناسبة
نعاود
hh
wt
##حتكم
ضيقة
iz
كرب
##ster
today
بسب
يجمع
الاحترام
تجري
لايف
##اذا
نروحو
certa
حقيقي
نسبة
وكاين
الظروف
differ
قديمة
##jb
الوجه
داره
daw
تتم
houda
##اولة
##يرك
الحارث
التر
##حيط
##ush
اسمك
ihab
حلقة
ناكل
##dad
##ايلي
##ستاذ
kt
##ls
##گر
yacine
مستقبل
actu
1000
tech
فاق
يخت
guer
حليب
غل
##yad
n7eb
اردوغان
dam
عود
##عونا
##yas
##خد
المحت
درجة
##وسي
الصيام
##이
##عبر
ويست
##عوض
week
sale
cheb
chw
omar
زب
##3ir
منع
##ouha
##ياح
take
##tra
bih
tina
##فيل
watch
بتح
نبكي
##سنطينة
فاط
##ils
seule
##cham
kita
на
ارجع
histoire
لعم
ماعندي
هههههههههههه
bark
45
##تة
والز
بحكم
دوله
##ﺎﻟ
القصة
##وته
مسمي
rec
جهنم
##سبه
نبدا
##قيمات
ويحفظ
aur
##ضبط
fac
gou
ااا
##لج
##حوا
ساعدة
amira
##chof
##سيلة
التد
الارها
يكم
##bas
fre
fah
ديراكت
يجيك
##ذو
تبين
##قيقه
unt
ait
##برا
السابق
يروحو
قطع
##واقع
##نحاو
خرشة
по
لاش
تبا
##orts
##ديش
تلقا
kas
##صلي
##انس
عبدالله
hommes
ريت
قلة
الاجر
السم
const
وبعدها
توق
الفار
facebook
##فز
free
اثر
##zer
فالدار
##زيدش
puis
##ns
aujourd
font
##ats
خونا
مخلو
طاكسي
يكت
الشك
الخزرج
work
meilleur
3l
fle
sun
تشي
##قينا
tot
president
sinon
##خرة
القدر
##taw
brady
عقد
فلو
متت
تخصص
فرحت
maroc
moun
##امية
##als
##جبد
وابت
اكرم
رضا
زيادة
لايك
mc
yem
##سيك
الوق
السعيد
بيننا
##حكاية
شار
فمك
##استغفر
ملتقيات
جس
الخونة
bouch
بزااف
rahom
ماكانش
دجانة
كري
والاس
الوج
##bin
##ومية
nw
##ناريو
الصالحة
##فته
سا
سند
insta
لاعبين
ثبت
##ful
safi
fav
ماكلة
بالجزاير
يتق
##uz
ويلهم
##resse
تغسل
المستقبل
sil
ws
##اصة
##ريع
reve
hala
نحو
jdid
ذو
##شغل
امتحان
##cep
##yorum
equipe
call
##cs
##12
القهوة
enta
star
قاله
doit
##iman
🤣🤣🤣🤣🤣
retour
بالر
##ssible
femme
sens
١٠
لاك
وكنت
hk
جوز
##يتة
خليه
saya
ماراح
نقراو
stop
اسعد
لكنه
kalau
حكام
هدو
التخ
ساعه
##خرا
##ula
القوة
وتم
اعمل
بيكم
سلمية
دايم
##حترام
##يبو
دارك
не
ds
##یا
bela
يشري
كفاه
##بلها
شعار
mimi
##3ab
##arak
##اءة
يوص
ادارة
غرب
##りか
##ouz
العار
##يهة
حياتو
وهوما
##fli
العالي
god
اشد
mh
tellement
الشاب
النية
psq
80
حركة
خالي
الحض
nem
لون
##ken
##ثمان
##عدة
يدك
##medi
ورقة
کر
##😥😥
##يكة
joue
##ef
نخاف
##xi
التك
فضلك
النظ
يحسب
نشاله
المملكة
الجنوب
##نتك
##لبك
يملك
مريضة
##بني
##kou
البو
toutes
yb
يتقبل
الخبز
kl
غاي
وظ
##cz
ماعن
والناس
##rej
rea
الثالث
juga
هدرة
طلق
نقلك
amis
going
تكت
##gs
بوش
##انسي
الداخ
يعاود
بعضهم
الميد
تعم
اكر
سرا
etais
jak
##سنا
demain
law
الامتحان
حافظ
فرض
##سی
##ball
##ثرة
تعرفي
اصعب
sub
السياسية
sana
##ть
pc
vont
##وهاش
2017
ملاين
की
العو
معكم
ايمان
##اضر
lie
يصل
##ole
##ولوج
cent
dji
##فنا
biha
لاحول
mw
دولار
other
جنب
##شون
##bl
العرش
عملت
تستحق
بعيدا
nchalah
mine
##ولكم
يكونو
ساهلة
ضعيف
تخت
##طوه
macha3ir
##ريل
##سيم
avait
05
##onne
يحاول
تستطيع
rub
اروع
تحمل
حرة
😢😢
يخرجو
يهديكم
يخدمو
##mah
##of
##ذين
##جرد
الكلمات
##هوش
##ра
الكذب
truc
allez
بغي
جنة
اسباب
tant
##cen
الاط
ner
اجي
يحمي
شوفو
بكر
##عباد
rent
##انوت
العيش
ونتي
commentaire
lazem
##خم
raison
mid
تفتح
زعمه
مساب
الهدف
3ad
##غات
الصحيح
walo
hn
برب
نوفم
under
وامى
المز
مدريد
وجميع
تربية
كوني
##jar
الهي
عقلية
شرط
gros
ماعرف
روعة
نقعد
السيسي
##pre
بالام
الجماعة
هادوك
وكانت
##طورة
##но
cause
هاو
##ilo
##ना
يخص
رواحكم
بقوة
cli
وجهي
try
droit
بسك
##bih
برحمته
باريس
تهم
الصيد
كور
##ماشاء
امان
القبر
صاب
##هز
##zak
##lid
##lil
##ربين
lala
برای
tim
جنان
##علاه
تقلي
ريحة
##んと
ياج
3end
بروح
امه
##unes
المطر
تشبه
تطلب
probleme
ليت
ادعي
##خطرة
الورد
##ايها
##cht
##رفد
قيل
##راني
بالفر
غيرها
موعد
الفرحة
wahda
فكل
##🤍🤍
الموج
always
##dra
نيتك
انفسهم
aid
las
هست
البرد
لاباج
بمعنى
وليست
3om
فنان
يحوس
وجهه
نسالك
تكم
##لحق
##ici
الاصل
mot
اقبل
الثلاث
public
pq
جارك
لى
اعلان
khaw
بليز
تدري
عارفة
lan
##ital
king
nuit
يثبت
envo
دينار
والعافية
خالص
journee
##♥♥♥♥
نكره
بيع
بيض
youtube
دل
وصح
mok
rayah
دوا
النت
##راها
kya
يذكر
##ril
##ويها
ابطال
لاننا
المسوولين
جيد
وراه
##وبيل
##نيين
سف
comple
حلوه
yad
##نبي
##جاوز
معظم
راقد
نحط
تصلي
حمار
نتيجة
500
hari
الصد
تاعكم
into
قار
##بحر
بحاجة
اى
نحوس
عاون
اودي
غزة
قنوات
هاش
##17
بينما
##شع
##mani
##ris
تمام
الظلم
##가
بالا
##لهاش
يجازي
صدقة
وبركاته
##ved
يتفرج
تكذب
القادمة
##lass
##ाम
الدعم
walou
الكتاب
كلو
لابد
radi
##ен
##miss
chan
يقال
org
يغني
bch
شهداء
ينوض
يحبك
نہ
سراح
کا
##kn
##گه
niveau
help
kee
لاحد
تعرض
aymen
down
##هذي
##3t
##يتنا
lf
ذالك
##ﷺﷺﷺﷺﷺﷺﷺﷺ
zed
ويكون
استغ
مستقب
رغ
##사라
القول
والشعب
afri
یا
##tting
يصبح
شفتو
kim
كلاش
نكمل
تشوفي
الريال
لعبة
نبينا
zw
يات
##زار
تفرح
ens
مارس
شوك
##mas
فية
عمارة
الامازي
صافي
السجن
تصدق
thanks
u0001f9
يظهر
chouf
meuf
ياحفيظ
الصور
الرحيم
الولايات
وشعور
##فيها
poli
عبدال
khatik
العقلية
النهاية
ممتاز
يوسع
فالجزاير
##ضعف
##02
##ート
العصر
##برها
ونس
شرب
قف
##ours
داعي
منح
##ويتي
المباراة
##ро
البقرة
تصر
##zair
تصريح
avais
ba3d
اتكلم
##cie
العلاقات
##رفت
بيان
الرحمة
##usement
صحبتي
تاتي
الحليب
نمشي
sr
deg
الصهي
##عيل
قريبا
خاوة
##ينو
دى
شبه
##kil
واو
kes
بربي
الحبيب
الجاية
وشعب
غياب
العل
envie
فتاة
كيد
هلا
المناسب
مبر
##net
ساكن
لاخر
مشاء
فالش
ste
غني
موم
##tive
##كيم
التغيير
فالق
abs
35
طل
##بصح
##0000
اكت
مطالب
عصابة
يديك
الاموال
##وهات
المرا
تبه
mun
##ﻨﺎ
يقراو
رايعة
الاجابة
##ريكية
##yes
##ert
##هاز
##زيل
تلحق
ساهل
##ai
##ough
العفو
laisse
عشرين
دارها
7na
daba
sn
وكت
##سها
تتحدث
untuk
yat
هديك
😅😅😅
##93
نحتاج
imene
يشوفو
محترم
كثيرة
نفر
ينس
الدكتور
ابواب
bezaf
trouve
المانيا
المدينة
طمانينة
##روسة
امها
demande
fay
ناف
alf
هكاك
دلاع
تنظيم
stat
الاستقلال
dulu
yass
خش
##kat
##لالا
ازمة
ياخويا
ment
##haa
better
لاكن
حزني
mos
tum
vir
##تغل
##ونيش
نصيب
final
قادرة
3icho
baba
سكن
ينسى
##🙏🏻
الفرح
وبت
راجلها
بفضل
جوا
حصة
سلطان
احدهم
houss
عالي
مافهم
كيلو
ديالو
##ता
النتيجة
ميزيرية
##inten
buk
دست
wa7ed
الاستاذة
انشالله
##24
##🏃🏃
saf
dom
mane
اضحك
نزل
##😆😆
commen
ميش
عظم
##ورية
القض
يسمى
##phone
لخر
##mit
استف
تظهر
being
حقه
##nie
يهني
يدافع
عامين
##خلت
اسالك
sed
##عني
##ason
##تهاش
##سنين
##فففف
عجبتني
##جان
##こと
##ياط
بالضحك
المنطقة
##مرار
يكذب
terr
قصد
hmm
##tre
##💖💖
عاق
الوف
تتفرج
##fic
##عنى
##ression
ul
##cem
##المة
تانى
هب
48
ارق
##iso
hot
متش
تغريد
ath
sta
مواقع
corona
ari
jan
پی
الترك
الحكاية
علابالك
##ones
يهديهم
deng
##rs
احكي
year
eb
يذ
##لفة
##گی
##قوط
yasmine
ننس
##سيد
##pas
maka
اسماء
##des
ياد
الشد
bour
تنسى
داد
العالمي
الخلق
##سكين
dont
ket
انزل
هاذيك
##lachhab
يهد
العدو
معنديش
brahim
تقت
فام
قران
##어
تكره
شكر
تركي
تعليقي
مزي
الصوت
الامري
merde
sahbi
##فاظ
قاط
##عدي
##wat
##اكي
يخطب
يخشى
tae
##weet
could
فضي
لقيمات
العج
##لونا
القص
تقي
##لقو
وماي
mlih
3andi
arrive
الالكتروني
##cle
##bk
mainten
##سمين
حاجات
ويسكنه
##لقه
raha
ist
##9o
الذه
الفوز
##اريع
اويحي
##cel
revol
fee
##요
masa
##ندوق
##صيحة
مكت
##dem
##خف
تمد
الاساتذة
قلتلها
طاحت
were
ghadi
للبلاد
cous
ورج
##ظيفة
##lique
يسكن
2015
tunis
ماب
ولاقوة
الدا
بانه
##hu
##رفين
ويخلي
حما
زدت
هذوك
عنوان
الدراسة
ديب
##mek
##😌😌
الخطا
الاخبار
##فقين
توجد
طاق
قديم
كرم
##pro
الحزن
etc
ادع
##orsli
عينيك
نفو
##زون
المومنين
يان
##60
حسنا
يبعد
wr
عت
القضاء
مخرج
ومنكم
nro
صوالح
##ttle
كلكم
استق
يريدون
باد
نكتب
##mn
##zan
ماعلي
المدرسة
##oooooooo
jsuis
gon
nu
##موع
##لقى
يخفى
الخامسة
tre
ضمير
change
##اوب
continu
الايمان
السن
وتخ
psk
صفر
يسقط
rabia
طبق
خلاف
وراي
##بلد
adel
وبس
معندوش
fut
pak
tji
تحدث
قرات
##خه
العش
معمر
boy
الحاكم
الاثنين
hun
زولي
petit
zina
meu
راحو
حملة
عبيد
##ical
##vice
jaw
بوع
##قعد
##ضيف
ياريت
تجعلني
##rabi
قرعة
اعداء
اجركم
gas
nada
##ماذا
وترك
دوكا
جملة
madrid
04
mchi
##3d
معجب
ميلاد
الثالثة
قلتي
##js
جناتك
القديمة
##outine
صوتك
ﻣﻦ
تعال
بعدما
ori
دماغ
ezreb
حنان
##fat
##zen
##pes
##زقة
##لمه
kw
m9
##ظات
##فيديو
يبقي
غسيل
فاج
##ili
القناة
اشكي
story
المختل
yetna
##rt
ياه
ويخ
soon
خروج
##ضرة
##has
الانتر
لحقت
عامة
طلبة
علام
##صباح
الصيف
hhhhhhhh
##دات
##نعم
##bra
##bil
##وندي
liya
##りかとう
رخ
كرام
##وضى
aim
jd
wn
قسنطينة
##youn
##فسي
##اربي
اللحظة
##akan
مشغ
##olk
شفتها
ayoub
##ense
##تيار
نتفكر
هاداك
kalo
سح
😏😏
##لاوي
اقص
الصين
بحر
honte
طاب
##ورات
دارهم
##دقاء
يحي
التفكير
لعام
جزاء
مكن
القادر
الخروج
ينتهي
smi
بلق
قايمة
##rouk
##دمي
como
ونش
الاسلامي
ينتظر
##لاط
الحج
##كانت
amour
won
دفاع
##mu
##vis
ملايين
fb
ذوق
🤔🤔🤔
##منا
##قس
##ても
##브
اللع
bass
mans
البن
##نتا
الاستعمار
##dik
امشي
الكر
😂😂😂😂😂😂😂😂😂😂😂
##ساطة
السكر
alb
ech
##yt
29
بزاااف
rest
##دري
ايق
اسود
m3aya
ممنوع
روم
ناح
##nel
##قش
##ances
##ابط
القادم
البشرية
زهر
بالان
voit
فرحان
saad
bsh
lakh
ثالث
يكره
##داك
##rai
علابال
نتاعك
algerienne
فارغ
tor
يوف
##gie
##15
##ريفة
hadik
homa
ris
##fak
يسالك
لعنة
نعرفو
muslim
قليلة
oc
مركز
وفاة
##ووووو
where
السعوديه
خطب
كلامي
##💕💕
##نوان
الطعام
الغي
دنياي
##hallah
البرلمان
kant
الملي
العراب
بالز
واحده
ينقص
sang
yaw
بتت
jai
دراما
##احي
##oses
hafid
gak
صرف
##ᅧᆫ
العراقي
##طينا
نتبع
يوميا
بصحتك
leh
##انيش
amer
ask
tkh
vou
##طالب
##raj
تعاود
فساد
خاين
🙏🏻
##رالات
##😜😜
##لوكان
تقولك
crois
تلفون
##dine
ماس
السك
##fique
bess
تكر
##yam
##لاعب
يكثر
2018
kaw
set
ضمن
لر
النس
تدعي
anes
مسلمين
##radji
simple
ptdrrrr
جاز
رقد
##قلين
بالمع
بغير
يحم
##سلة
##حصل
##lier
القمر
الاسد
بحث
str
الفرصة
ssa
سيم
ومس
##ᆯᄉ
these
ned
nor
##ضى
##ﻬﺎ
مثلك
يسمح
اظ
ترح
فراق
الكبر
العالمية
souhila
##فكار
show
نوفمبر
مير
##lha
##اوة
شفنا
خام
اليها
##thing
mehdi
نتو
##شيات
##teb
seri
لخير
##よう
##ورها
ايجا
قالولي
voila
rose
طابو
##وتها
كرش
##دب
##œur
ويك
نخمم
##صحك
وعلاه
للمس
عودة
haw
هدرت
الصالحين
المختلفة
##este
##اشة
يدوم
نسقسي
##ثى
ترق
فوا
مهي
##صم
##انی
بيس
افع
يعرفو
اثناء
##act
##ادم
يعافي
يقبل
##rain
يتنحاو
imane
viens
شقه
مزا
هاته
beso
var
yr
##velle
##طيش
mettre
jusqu
espere
بلدك
##pan
chef
film
الاذان
لال
##نور
العدل
بلاش
##rania
شلون
##ull
عجوز
##واني
##yin
##ал
bouk
سعاد
دموع
import
democra
hand
سهل
طر
الحالي
##توي
لهذه
maro
سمح
بنفسك
give
##👌👌
##هاينة
##ouane
jeune
الاربع
mira
صاحبك
3m
hit
sna
ماف
اسمي
##ghir
حطيت
اروح
ﻓﻲ
##るの
راسه
##abd
الوعي
يدفع
نصلي
years
##وی
البعد
الاسود
sofiane
العلمانية
الادارة
كاتب
النش
hadak
rac
وصلنا
احمر
pot
##عيين
الطيبة
خخخخ
بعم
##ume
لاجل
##لعن
pire
لتم
لبارح
##💚💚
##alem
##غرام
الين
الجميلة
ديالك
##hhhhhhhhhhhhhhhhhhhhhhhhhhhhhhhh
rin
هبل
##ـد
##😉😉
واخر
##raw
##endo
000
ky
تاو
حيت
##raa
السف
الفا
##hhhhh
world
مصلحة
td
##こさい
##بلع
وانما
##ياف
اصبر
تعبت
rela
vendr
ترم
شما
justice
opp
حفيض
##وون
usma
رواحهم
العامة
بيوت
##eee
grande
nen
مود
##88
made
##سمبر
تبد
aissa
تدم
شاد
##افظة
neb
##هاتف
33
🙄🙄🙄
##abil
متوا
indi
##uni
منطق
الجيل
##هيمي
##تلو
##oucha
منط
للصفحة
ut
##ضه
##انيات
الوسط
يترك
personnes
نقي
##لتي
الانجليزية
حسابات
199
العلماء
sing
##نهار
فالس
رايت
مصدر
slim
سقط
##یز
ليف
بالاس
الته
الغاشي
الجزء
euro
يسي
queen
cat
##hadj
##لاميذ
zaki
بيتك
##ملي
##حمر
الكبيرة
reli
يفعل
##よね
الرزق
دب
المجلس
##بيعية
قلوبهم
السوق
الطرق
دارنا
ماهوش
##سفة
##جير
اسلوب
kang
##خن
يفوت
premier
ننسى
وخاصة
papa
اعطيني
ذيك
فوبيا
##ाल
age
ot
ضح
##ही
##ھی
##ray
ريان
موجودة
mand
وزوج
الاور
تام
hain
تبقي
ra7
ضرو
مرب
نعت
تعط
متخ
ﺍﻟﻤ
ديدين
krahtek
مسب
المض
##سيه
##لابس
حرفيا
yed
##لاو
ومست
فالط
فاتت
هرب
##aires
الخميس
##هدرة
بدري
force
يطالب
بالصح
سامح
##self
gel
ls
فامي
مكتو
شفتي
الغاز
soir
##عرفوش
black
yahia
غريبة
فيني
##3ou
اوكي
saw
amaz
list
sour
##صلى
##14
الاهم
تدور
adi
شارك
الاض
maw
##يده
موسم
##رمة
المثل
bilal
##ثب
##ista
قصدي
fet
ادو
نايم
نرى
##ła
##اشت
وحق
تنشر
باباه
باج
نخلص
راو
##amine
اللقاح
صاي
الفنان
lih
sex
حبيبنا
سود
ماه
##حمين
produ
houma
اسلامية
نعيط
بسرعة
بكره
صام
##dio
يحفظو
##rina
##ット
الفن
استث
systeme
pow
دواء
لديك
نقد
##🤭🤭
استط
##يح
البولي
##حبوش
للغ
##داقة
يصلي
ضعف
bot
##افات
ولدي
زوجها
نعلم
عطر
يڨ
3liya
music
فضلا
fak
تاي
##كذا
##dah
مواقف
نغسل
wa3
تحاول
##jaja
3lach
##mohamed
bayna
enfants
tid
شهور
kid
situ
عاو
العافية
معين
البلاء
موال
hadjer
فرد
يقطع
deh
##دمات
تجمع
##iller
opin
فوز
##km
##الغ
##ديات
مافهمتش
##ttes
اعادة
##ouse
توص
محدش
بالصحة
عري
💔💔
##ер
##army
##تيب
زوجة
لرب
##jj
##ıs
الفلوس
تمس
المنبر
rat
##😋😋
انج
##ونج
##hadi
##طيها
حياتها
imad
الرابط
يليق
##مشي
روطار
##عيط
next
##اخذ
dengan
##ism
القسم
باغ
التلفزيون
league
شقه9
##ونهم
الجهل
inde
ntouma
عاجل
طير
دخلك
nouvelle
tp
سارة
##raz
الشاعر
درتي
صاري
لذ
واعرة
##وتيوب
ykh
##انع
الجمهور
التب
##und
تمثل
goo
hs
jes
افطار
يغادر
champ
يامن
##んか
منصب
ماين
واقف
passer
##نساء
وعدم
##16
السلط
يسال
يدخلو
raho
لديه
##ти
##ارين
المفت
اترك
مبت
ستر
اينما
الصغيرة
روو
##زلها
##بيات
والر
الظالمين
##😎😎
العهد
راضي
##رجل
البري
افوض
🥺🥺
بعيدة
اقامة
omg
girl
raw
كمال
ولق
##ian
الطي
زن
فانا
##😱😱
##الدو
خبز
تصلح
يضيع
##lech
##ument
##vern
##فهوم
arabe
rachid
jat
لناس
ولى
##زام
##lais
لاست
ghan
##ومونتار
صي
الرم
##وافق
اصاب
كنتم
تسجيل
تجربة
##mon
##سلسل
تعجب
تسلم
u200e
##ابعين
الانسانية
العوامه
zam
##jah
boute
تلبس
ذنوب
##7o
samir
pare
##❤❤❤
كمية
نطلب
arab
الدراجي
keep
ليام
وخرج
مصري
الاحوال
بانك
bit
##ڨي
بالضبط
nmout
لذا
المورال
لتح
صعبة
فصل
##ريقي
##asse
الوص
نقاط
feel
كرهت
maintenant
vendredi
صمت
كين
يبعث
پر
##سع
##رود
شهرين
ويرحم
بقول
بذلك
cote
##لوقتي
##tin
##ак
الخر
متل
تقل
لقب
bol
louk
بدو
##طاي
wait
فانه
ارك
##بوت
اخطيك
روسيا
عمار
parents
قلبو
قتلها
habib
يماك
جوع
الود
##elli
##imin
تتعلم
##2021
باص
مراك
##met
##جمع
سان
كسر
##وعب
الفيسبوك
ياكلو
بقدر
عف
قيس
##af
##ايام
##tty
متاكد
اهلي
خرجو
##itaire
liberte
manger
لدي
راف
ولاي
اغت
المغربي
سقما
zine
بوس
سلك
udah
debut
##3ma
##👍👍
##😳😳
مقص
الشرعية
hahahaha
##كريات
تبانلي
##بدا
##ىء
نفسيا
mons
ملاحظة
الاسبوع
برضو
った
🤣😂
##의
##سيف
##اوها
ماتو
regarde
تقتل
prote
##اضية
سعادة
التطبيع
حرا
مريم
##fan
##cion
##law
اطلق
عدنا
واضحة
افتح
ماقد
بعده
يفكر
besoin
yw
يجعلها
انتوما
khalidi
الفايسبوك
birth
الما
##نته
حفظه
جون
زوالي
فكيف
##ley
chance
باباها
essa
فير
فهاد
الجمع
malgre
gun
لعد
##mak
##rj
الاعد
##اكين
يتحدث
jeunes
support
revolution
سكت
##سيقى
الراحمين
larbi
اهو
قبي
باز
ادفع
تعرفو
يشافيك
يعوضك
3aw
عسلوج
هني
##hy
البح
exper
hia
مدي
##راجع
makh
متق
وقع
تسقسي
دابا
نيك
##شام
##داع
##بينا
الجي
الكبار
##زيدي
اشك
اختيار
alah
حزين
غفر
##طم
المث
حياتهم
الابرار
وردة
لاس
بالل
قلبها
nchouf
kaby
خمسة
ودا
##만
منقول
الصاد
##لبت
##زالة
تغي
عقابهم
##🤣😂🤣😂
06
bend
rom
يحمل
##ارد
##رفه
وجهو
المساجد
شمس
##وث
beout
##زيمة
emp
مرضى
قليلا
ain
##iɞ
##다
stp
اختار
مسمياتها
حجم
غنية
يامات
##mans
##7aw
انام
leg
stay
نهايي
colle
بومدين
حوار
##ضامن
النخ
استخ
##eki
aucun
##ubarak
hem
اپ
شهد
##13
##انها
chu
صدقت
fille
حف
شريك
##ᅲᄐ
read
##ترول
contra
thi
يلبس
##ır
##رييس
العمي
many
جعفر
هند
ﻭﺍ
##ora
##تيمة
دخلنا
البداية
حنين
##zem
جايين
300
موق
##فتر
night
sus
send
chem
politique
لقط
##لول
##ياو
كاب
ولينا
##ᅲ튜
##3al
بكيت
##ᅲ튜브
سے
السبت
الدوله
عسكريه
تنتظر
واكثر
يغم
مادة
اسما
سيف
كسب
اوك
بسيطة
الازمة
امثالك
rubina
وراك
##يتكم
اذكر
يرى
##zu
##ـة
##😤😤
##اتل
mac
تعاون
بينك
قتلت
الفيلم
kali
حوالي
دز
##dm
##طاج
##ورهم
واف
القنوات
انتا
##ربيع
مالق
الحوثي
خار
##اهية
##افهة
اسيا
يساعد
##حرير
بالذات
##صري
##😍😍😍😍
الشمال
ومان
لقاء
kife
دخول
accord
ata
##برع
باخ
قتلك
المرضى
مشت
🤲🏻
##الط
ouf
ميك
اتفق
بلدي
##عليق
##وووووو
تزوجت
kok
جبد
سجل
يخل
##gt
الزي
الفتن
ثقافة
##غسل
##حتنا
##المهم
class
fina
بولي
sau
##زيزة
تسال
rohi
##ump
كبرت
البلا
يدعي
الجماهير
شريف
ضر
##ント
##افل
sala
يرحموا
نفسهم
عايزة
علی
jit
حزن
##tos
انح
تعني
مصيبة
والاست
ههههههههههههههههههههههههههههههههههههههههههههههههههههههههههههههههه
2000
khi
use
قاي
وقيل
المليون
تلقاهم
sport
##يق
##لازم
الشغل
الترج
بانت
الصحفي
المسوولية
rania
jib
شدة
##nat
hahahahaha
فجاة
cours
مدرسة
شرا
##ky
##ونت
الموقف
رمضانكم
##jab
##3at
##ız
النض
rod
الريح
jah
fihom
وقلت
المشاعر
صعيب
تفكير
العدالة
##ارن
الاطباء
الحوار
##ret
hier
##fah
##ᅥᆫ
منبعد
انتاع
marche
sorry
سلاح
##bet
##🇸🇦
##🤲🏻
##ونص
##فيذ
##اهدين
تكبر
فتنة
تنتهي
bghit
دلوقتي
العرس
يحش
تترك
zay
ادير
##ناهم
معلاب
ولازم
الكاس
##daw
مثواها
##اضة
اطلاق
حجر
رفيق
##alite
##روات
تعيط
اخوي
manque
فيفري
داركم
الضغط
##راشات
وبر
##واطن
خلونا
dri
hor
kwa
خوه
نوا
##حيات
بيسك
##issam
فانز
monsieur
شاك
غا
##امرة
##راوة
mass
##رجه
ويزيد
علاج
bens
فتحت
two
##ap
منظ
##hay
راجلي
alg
wahad
03
bzaf
yous
ردي
##طت
##ـب
##ربول
##فساد
اسوا
##fach
##ثلج
koi
##دمت
لمهم
يشعر
ينصر
بوق
ساح
##미
ihe
ml
كانه
##ودك
aou
bor
eps
فوت
مراة
##ظاهر
##rate
dega
##وهش
khay
جدة
حرق
يوج
ويطول
بقات
##فقه
فارس
##こさいます
care
جاك
##ری
##vement
##راءات
ازاي
tit
تلي
ومح
قدرت
وصف
قررت
زد
##😊😊
##التي
anak
anni
حذ
عذ
يبحث
##راط
وصوتي
atten
##kl
نسا
adresse
3ib
port
##های
وسع
month
hol
سلا
الشت
نحنا
kit
##غت
ونهار
اشرف
وكذا
المغاربة
malhe
##مممم
مفهم
ويجي
تبدل
بض
##الش
المبلغ
كانك
عشق
بكثير
وجهة
houwa
تالي
يذهب
##طلة
##لوع
##اقه
manel
kenal
##alt
وتست
##وكل
2014
##cl
##هاء
اعز
##نساش
na7
وليدي
الروم
العليا
ضغط
نكت
##هلك
##18
##واجب
زك
##lali
tawa
لباب
الجزيرة
توفيقك
test
ولادك
البسي
beh
vac
pay
فاح
تصير
سالم
から
تسمى
عر
هبط
##ريج
الدرجة
ابعد
وعلاش
انيس
nice
##fore
تصل
ثمن
ناد
##hali
##tti
زوجي
الفقراء
3asker
##fla
تخمم
doub
فز
قه
##ارا
##ركى
رايكم
djamel
##ظيمة
تعتبر
وابتلاع
cet
هاه
🇸🇦
##zza
تخسر
conse
وقتك
##شرين
bcp
link
نڨ
##ria
##طيب
##هاذي
##ياز
امني
اسف
يلعبو
gl
رام
كدة
##سمى
مصطفى
dib
nkh
♥♥
##pet
الهاش
##تيل
وقتاش
البيض
##ctions
bur
لطيف
##은
وتج
ينجح
rebbi
عض
##ارضة
لاج
##لقات
تشرب
يدعم
hein
noir
का
المقد
يسلم
add
واعت
##انتخابات
okay
jed
يفت
##بيطار
##اولات
تمت
صحيحة
tik
مـ
##اقد
##خو
##chen
serie
تشوفو
ماكاش
##لميذ
دورة
كيت
##تف
البحث
hakim
##ain
##wd
الحسين
##تويت
يتعلم
😑😑😑
اتوقع
iya
رع
##raya
انتظر
يحصل
##وارع
didn
kader
الاسباب
یه
السوري
بتس
شريت
##حيد
الافكار
##ودين
يعاني
روحه
jv
بايد
طهور
##hel
تسكن
كنتو
boleh
keb
##ربط
##khali
راسها
صدقني
ختك
فيروس
##فذ
##かった
##ᅩᆼᄉ
الرك
اوت
بكلمة
##واجهة
libre
##هرباء
حام
فاص
نسب
##خا
ikram
سعودي
تلاق
زال
##dja
##yar
##ديوهات
تحل
روز
اصغر
بصراحة
mdd
تافه
##zin
##جتمع
##mie
رمضانك
اجعلنا
book
اشي
عرش
وشي
##kader
##rar
##ated
yeh
الوالد
manif
لفت
القيم
بلال
log
سجن
مراد
##ᅮᆯ
##laa
الصدق
##اليل
يتغير
##دوها
##مالا
لعقوبة
سياسية
وغنى
34
dos
ارفع
وتف
الحبس
imagine
sis
بلب
غالية
قاسم
الساح
ضحكت
cherif
سلط
##mt
##ration
##فيان
amar
teh
##زنبر
importe
ڨع
##قتى
سد
قراءة
دعاوي
##خيص
وارحمه
نصر
الفات
مشهد
guzel
##stapha
الداخل
zan
دة
قو
##yon
##ديان
والهم
ديسمبر
الشعبية
special
hate
صن
##قن
##امع
متابعة
نتعلم
secon
prendre
سيي
للهم
##っと
المراه
التركي
اولي
اخيرا
##ienne
مالها
اردت
02
للاب
##dc
##ghar
##روحك
الفلسطين
مسوولية
😒😒😒
اتباع
##يشة
الذنوب
authorrania
football
يوقف
##him
yaa
يحفظه
##باقي
ساكت
هايزنبر
الفلسطيني
general
travail
##وضع
plan
##vert
##لس
##ced
##isation
يتش
mein
الطف
chay
يرقد
التحدي
yji
##hada
مايت
تلقاها
ابا
##لقي
##ﻴﺮ
الملعب
##abe
متاع
##ander
لبن
كلامه
الاغنية
bali
shab
يفع
##khal
تفوت
exact
الظهر
سابقا
نہیں
##صادي
##الص
بالجم
##حكومة
ابيض
مسابقه
اقدر
قوله
كه
يلت
##كاء
##ايس
##ديس
##ياحة
ing
ونح
قالتلي
ميساج
اء
seb
تملك
مدى
نكر
هارب
فالص
بنك
##رايب
اثنين
fast
نانسي
mean
##وبه
مرور
kom
kena
line
الجاه
##اهش
##كانش
يقولوا
عنابة
someone
nabil
الاحداث
dat
##فني
##حمده
مصير
achour
celui
##🤦🏻
##ولوا
##ادات
##اسر
يخليه
الامم
##😂😂😂😂😂😂
kach
حطها
hanane
اخواننا
الصهيوني
hek
scho
بيني
##بغي
##ahmed
الصمت
اختك
الجامعات
كشما
vc
مبلغ
##صلت
##🇲🇦
##haf
##oro
derradji
نلقى
فضلكم
صرت
ملعب
##🤮🤮
معلم
القديم
نقولها
يماه
اتوب
##dia
##الس
يحرق
amo
boua
palest
شاه
غرام
وتكون
##cent
##سمح
##صحى
تتس
نطلع
المرء
الشهيد
hard
ايت
وكيل
##بوا
والى
deser
الثوب
حبست
vai
فاز
قوا
##ug
##خاب
##ههم
2016
shit
حسابك
semaine
gars
اضرب
##غني
##لاسف
بيقول
##oles
##عوها
وبن
خاطرك
رابح
##ناقش
which
bom
مراه
##ック
devant
wa7d
cc
تراب
يربح
ينزل
الثان
pp
هده
يهو
##قلك
البلي
الكهول
younes
مستشفى
ستاتي
كفاش
##didja
mang
old
غدوا
نكم
ولب
##ーー
##eter
سمير
خطوة
sch
وبعض
🙂🙂
والتي
وشوف
كلمه
aley
sma
##ربه
##شيش
isra
حقنا
maroca
birthday
الزا
##isir
hami
وزولي
البلدان
3lah
##nia
انتظار
##cune
l3am
inform
الحقيقية
ومزال
الامان
ربحت
الوالدة
بروحك
compris
الامريكي
حفر
هون
وهما
##fad
ربيع
تڨ
##ース
##esse
العودة
##chou
متس
neg
مخل
##اوم
##ust
الزب
خرب
طعم
##nu
##ليين
لاد
صحفي
يصدق
الرسالة
الفايدة
kbi
يجع
##42
##ايز
لشخص
الاصدقاء
atta
انتهت
##وغ
##てい
مرتك
المتحدة
ایران
cle
##لی
##توك
الكريمة
##والو
عيون
sia
صالحة
##red
##نوا
##tih
مغربي
فاضي
wellah
##そう
##ни
ma9
##ido
عموما
connais
باط
جبر
حلا
هج
maya
انفسنا
عما
##خان
##داقية
##anight
بسيف
بيناتهم
وقفت
##اخي
baru
socialmedi
زينة
مارك
##ht
##ᅦᆫ
تقديم
مدن
##عرفو
مباركة
خبي
غبي
##صادية
الشكر
##abdel
##اونا
الامريكية
##nich
cela
##ازة
##ession
coeur
dad
روت
سات
كذاب
باللي
##افلة
ener
plein
الفاسد
لنفسك
براي
جدك
##جاد
اوقات
روحت
##mage
مسجد
##فلسطين
مرتين
message
rb
##nas
وحيد
احدى
guys
الفيس
kda
tell
##سارة
الفضي
##vez
ينح
الحاجه
wkwk
الديمقراطية
ʚiɞ
##for
##ولف
تحبي
مسيرة
##joy
ue
##80
##اعم
اجد
العملية
بيناتنا
لير
ﻋﻠ
##صالح
##haba
##لبو
##حيلي
before
اغاني
mia
##ja3
##tini
##قون
##صلة
السلاح
done
وغيرها
##nak
##wer
السلم
bena
فلن
semua
lama
ودار
حيوان
تغني
فوطو
الادب
##دج
##رينا
المشكله
الحكام
##غامرش
قوانين
##fay
##قها
##نبية
##री
##👇🏻
math
ياااا
##ikan
ومرات
kami
كونك
الصحافة
بالقلب
gan
جيدة
anne
القمة
##ميها
اقصد
احدا
جامع
عسى
mra
y7
الهاتف
اوق
خلقه
قدامك
kbir
اير
شرق
##غار
##شكرا
واجد
mokh
دينا
##tok
yeah
جيتي
الحيوانات
خفت
مفر
ودم
##باط
##emble
chang
حاله
فعلت
socialmedianight
das
غرد
ناش
😢😢😢
##ron
chkon
لولاد
مدخله
قيمته
99
نمد
وقي
##🥴🥴
المباريات
ast
طمو
مذا
##ng
الفكر
الخل
انتوا
سعر
ماعلاب
zebi
اهد
##62
##ليت
##ولودية
سليمان
kur
##lna
بيبي
عادل
cara
pd
wish
قصر
##코
##ises
اهداف
ﺍﻟﻠ
mut
yab
اها
تلاقي
رز
شيت
##عش
##عج
##ينا
##هى
##اعده
اميرة
الفض
##iles
النق
##عوش
تتخ
الجزاءر
era
hist
مارب
هاني
تروحي
حالك
##m3
##اتلي
etudi
نحكم
الشعور
تلمسان
الكبرى
32
##una
يشهد
bonjour
عقب
those
fad
##الين
لاص
بعين
##fff
لعزيز
يحبس
##قصى
غلطة
39
##pend
lek
abde
عطای
kil
يرض
الجر
ياسي
##ميش
chaima
يحفضك
حاشا
police
bri
نفرح
##روبة
esta
مهمة
زادت
جسم
مله
مرد
##خلك
##타
##واطي
يبدو
nai
فليس
فها
##hin
##vic
##حها
##راير
توب
يستمر
عجبني
خلات
##ela
الشفاء
##اوى
chab
عادية
باتنة
شرح
##ورا
##واهم
حسنات
لكنها
##cao
##اهات
الرقم
مقدرتش
هام
الدنس
##حتهم
حلول
ارجو
##طرد
##رياء
يحق
موه
loin
##ريال
يعنى
اخبر
الاخوة
ممث
اطلع
yakhi
bladi
صهي
जी
##قده
يمر
عشانك
friend
يبع
الشام
khed
اللہ
##ative
نیست
zoh
بشي
جواب
##زمة
المواد
المقص
soci
تسوي
##درات
الصحية
المواقف
الجملة
عاقل
المرحلة
dakh
egy
moul
##حبك
##ild
ابكي
يعطيكم
sort
##すき
باله
السخ
استش
يشرب
اتعلم
لابس
family
العهدة
cok
ههههههههههههه
بواحد
عثمان
##رول
##حبو
الصراحة
خاطري
ola
yen
اكره
جاني
فايق
llah
جهل
سار
طايح
##vir
السنين
##عينات
اهتمام
تعليقات
##venir
##خافش
7ab
ate
##ると
والوا
##نتج
##بهة
الاخضر
الذكر
اختبار
zahra
toun
لبي
##شفيات
##██
##الجزاير
max
وته
تحصل
##اطف
الزواف
hado
دايمن
حسابه
جابو
tfou
ych
##ودو
دخلو
faites
حاسب
ibt
respons
nge
يدا
##ık
امبعد
يتخ
افراد
feat
دراسة
رزقك
رشيد
الداخلية
جريمة
زل
شح
عرق
##eno
##ماش
##تينا
##اسبة
الاسف
##يسى
يفك
pref
نظرة
فاشل
tkoun
ريم
##んてす
##💗💗
الدراما
##وكة
لمش
##ulent
تفو
وروح
##ст
امرا
choses
ابسط
فرص
وطلع
ذل
##qa
التاني
sui
رحلت
baby
ماهيش
المعلومات
ڤاع
##روت
تسقط
vient
##جاع
الدولي
القوم
##row
الراحة
repond
سبة
##zal
##rir
##ديما
ماح
ماكرون
مساعد
ونقول
khto
##زاء
##ﺎﺭ
##40
ta7
hwa
##رقد
##arti
العلاقة
الوحدة
tag
##cks
اثبت
musulmans
قاب
nf
غم
deta
يقوي
وهذه
جرح
ظن
هالم
##jd
واث
الباطل
تعالي
يجيبو
استغفرالله
continue
تذك
كشف
ناي
##lhom
مغت
خلقت
الفتاة
##lalu
الرسمي
ندمت
اللبن
terror
u06
ناوي
جبال
##jel
rez
khas
تصور
المنزل
ويوم
sai
kher
islami
تفعل
doing
بلدنا
لتو
الحسن
##سيس
النفاق
ياودي
البطولة
sle
حلب
##يها
##ورس
##اخير
##학
تحي
हो
##ᅳᆯ
##لادي
القتل
##ily
شعري
wass
قوه
پا
##نز
##فيرة
##ething
##نوز
استغل
تبغي
نحبو
malek
الخطاب
cade
طوال
##ونات
##ضك
يعطيه
لوال
يطبق
وجعل
انعم
walak
مبسو
حمزة
train
جميلا
tin
كوب
لوج
نيم
##dwa
الشريف
يعين
اهتم
##رامج
نخلي
moussa
wlah
تها
##たら
##ريده
الزهر
الفترة
الصفحات
fares
lieu
album
تدافع
anc
##ento
اسد
##utes
يقولها
واعر
بجاية
##دني
##صرية
##gun
tau
##rahmane
والاخر
##walid
لرا
##ります
##ربيه
##hhhhhh
اتع
مكة
hichem
زيدان
الازرق
خدا
يرح
##كات
##ual
##れは
ليز
البرو
##seb
peur
u06dd
معناه
##اهلو
اخويا
##طوري
تكس
##دارس
الفيفا
وطنية
##ابتن
فنحن
ههههههههههههههههههههههههههههههههههههههههههههههههه
kin
قنا
الفرا
بلح
كونت
سلطة
بداو
الاكبر
mul
khel
بغض
وارزق
السيارة
بلاصتك
oublie
lla
معاد
##saire
##ppe
الزوجة
واقيل
##amo
السلامة
leb
##عودية
dess
تنزل
نقاش
tran
نبغي
هاذوك
deten
##لبي
elles
نحسب
سبق
طعام
مرف
##شكون
##زاف
بيكون
يقصد
بركة
foi
nel
داو
فدار
يديه
##وعة
##port
فيصل
الشوط
ايهاب
يكبر
الخارجية
fd
شجرة
##كونش
##هوه
bnadem
المريضة
nj
اذهب
الحمار
عمله
استر
prison
##راقب
rese
نطيب
سلف
صبع
مقطع
تقصد
aucune
espo
imen
زوجته
اطلب
كالع
الماس
##roy
تشت
argent
##زلنا
خطاي
زيدي
something
400
hen
يبر
انجليزية
السع
##قتهم
هيية
##زيام
يبين
محاولة
##بببب
اقتصاد
الالب
السبع
المصريين
bara
tir
بلك
عدا
الدو
##outer
مخي
المدنية
الانترنت
lon
لحكاية
##ابك
##rag
ياس
مشكله
u202
لعند
procha
العصابات
اصبحنا
١٤
##かな
##67
انى
##لوكي
النقل
اشهار
##رمان
الاردن
اغلى
##ذيب
##لاها
##isser
ولع
حقها
matin
media
7aja
تبيع
يلم
##wel
تحر
فرعون
بتع
يبت
high
##طانيا
dist
لمي
##당
ناحية
تزع
##هادي
الحراش
##amar
نتم
عمال
##اقبة
hani
چه
##tes
##ри
##ذاء
الفرج
ايدي
ابع
نتزوج
##ردين
اتذكر
تنفع
coupe
مافيها
اصدقاء
بالرغم
قضاء
##خويا
يدعو
رياضة
##💜💜💜💜
gat
قامت
##bali
نشاء
معلومات
##هش
ماز
الغربية
يطيب
هاكا
##fia
##artaw
liv
الاندية
الغالية
تسلي
ikh
ym
بحد
ظهور
##tak
##قالي
##ᅮᆼ아
##طوها
تجاوز
##قوله
##طلح
خفيف
commence
iheartaw
にな
نفسية
whd
7ta
فلك
##امير
ياسين
##اجات
الكتب
مزالو
عيال
مسلسلات
الاجتماعية
##ᅩᆼ숭아
قاس
ووو
العسل
mafi
bala
للحراك
انسى
hin
وقل
##zir
المعنى
##روفة
eno
##فسد
ديالي
بارد
العطى
aoui
نرو
##ward
##23
##اجمل
انتخب
mode
وحسن
##وانت
فشل
بحبك
حفرة
شعوب
😌😌
##45
##😐😐
الحركة
##ahi
الشم
بطولة
المعلق
commun
school
بوز
دروس
غلق
قدير
قاري
##طاجي
الباس
تصيب
pau
##barek
friends
iheartawards
cult
zy
عاصمة
قمت
##اتني
##ings
يحل
rabbi
لجميع
knt
isso
صايي
##سرة
##👍🏻
منش
##andi
##سمية
tfak
وتحيا
mbaya
السوداء
ناجح
08
aille
mange
فهل
يظ
##ايرة
##ضار
##late
حسابي
مانعرف
يشافيها
زبي
العنص
تعجبني
اخطاء
اتح
hadou
##يمين
ينتقد
نورمالمون
europe
##don
##gol
منز
##orite
fils
souhaila
قلو
نمت
##lb
##ﻮﺍ
مقار
حبو
##kkk
ليفربول
تلت
زوا
لقي
##ﻬﻢ
##که
##other
اللحم
لعل
hakda
تعلمت
insul
جاهل
وغفر
##قنا
##كيما
حتان
hadchi
fiya
##ziane
wella
aap
dormir
خرشف
كاف
##ли
الكوك
bey
يدل
لجنة
يشافيه
الابتدايي
ago
ili
sd
مومن
##قلية
والديه
الجوع
يااهل
امبارح
استطيع
gher
relig
جدو
غضب
##دعي
##حفيظ
الربيع
##فيقي
النج
وانه
##عوذ
يسر
سيتي
mena
minha
mourad
عسكري
يلزم
ftour
الاقتصاد
يلعن
##bie
واصل
تتبع
adore
نجم
احترامي
علق
##لاين
البخ
يحاسب
sec
تشكي
ينقى
لبس
مثلما
##uuu
##روبلام
فاسد
임영웅유튜브
حار
يطي
##zm
##िक
##ekh
##ros
مقودة
عطلة
خلى
##صابة
##ка
منص
##نوع
##ديرو
وحساب
jug
##ements
pero
مريضه
حصلت
9ol
rid
rim
جانب
مرك
##lef
الخدمات
يحزن
های
hamd
salim
قطاع
العرض
الصرف
علابيها
قالنا
##ᆼ의
رونالدو
معنتها
##ater
باید
pap
riad
والسكر
كد
ورس
##ness
يتحمل
لمس
مجهود
تلقاي
جوج
##го
معاي
ro7
ننتظر
malheure
ذرك
##しい
اليا
enfin
الانف
وقلب
sign
هادشي
وهناك
درنا
بالعربية
يضحكو
##zamorsli
36
##고
##на
معدل
افلام
تسير
المغربية
واحسن
sout
جور
جلد
فهد
يكر
##3ar
الاغلبية
ينحي
فتره
يمكنك
غلطت
premiere
ساي
طرا
##ينغ
المزيد
##ريكا
ستار
repon
ويبقى
banyak
محمود
ghar
nin
مقدر
##uma
##rais
bila
المشروع
luck
univers
hid
مزيد
##لص
##بنا
##كوم
##val
مشاهدة
sujet
appel
ouais
db
thab
مواد
##بنات
##jan
تصاور
popu
##issem
صدري
الظن
خسرت
satu
لزرق
ساخ
شديد
غر
مية
##ва
والاح
##لاحول
donner
masih
التويتر
attend
انفسكم
##ᅦᆫ타
lmo
بيري
##كتي
##come
##لوهم
##اكيد
ميز
الهند
paix
فهمتش
job
ma3ana
find
##یلی
قوات
یہ
افك
منافق
ذكرى
cur
home
ترفع
دافع
عقدة
🙏🙏
##비
##ᆯ센타
##콜센타
##ᆼ의콜센타
كرامة
يها
##uar
##ла
##ركت
##riere
##طولات
يبغي
وقالت
3lihom
الاحسن
الحقوق
جمعية
السماوات
##شحال
##ten
##واط
##نيف
chr
ايجار
##oso
hop
عارفه
##ject
ندعي
عينيا
jar
##مليون
تخطب
صفحات
kalina
ويسكنها
open
##هاهاهاها
المظلوم
bous
lbar
بطن
شروط
##ڨو
##صلحة
اجيب
تجاه
خلصت
##학당
##ᅩᆼ숭아학당
شده
قس
كولي
##غه
الياب
اسكت
hahah
youm
##khir
تقولها
مرتاح
رابط
صادق
liter
عفوا
تعاني
اسر
##ــي
khadidja
مردم
cop
impo
نتاعو
gonna
wom
اهدر
##list
##طون
##xx
##ليف
المعي
chik
مشك
تحرق
hey
##ico
يغت
جيجل
tweets
العسكري
spo
عفسة
الاية
فرنسي
muito
rire
سوي
وحي
##ues
##فش
##rach
التى
متب
وقبل
partie
مفتوح
الثقافة
حبت
قلق
##هرة
##وست
##zay
##sen
##جابة
##جاعة
الدعوة
نتايج
لوقت
dalam
weld
fond
خدي
رحيل
نے
الفك
##هدف
hamid
اتجاه
صباحا
خيانة
حقيقته
mp
هايل
##انى
##la9
##يدو
الوس
##فتها
wlid
خاتم
يزع
##72
الرش
##ايكم
الخم
اخاف
فالخ
elli
المخلو
##روبات
name
اوا
خطة
يرت
##dition
##قوم
##time
يحارب
##cept
ديار
فرنسية
walla
نديرها
الارضية
فقير
عاجلا
##فايس
المواطنين
فكرت
قا
يند
##ко
##ستوى
واقت
##sto
##assi
possible
زيارة
نمی
##نمية
##wwww
mabrouk
هايزنبرغ
وذلك
والار
احكم
##وبات
تندم
حقو
المسوول
نمو
##jam
##ᅧᆯ
##ااااااا
عيوني
days
بست
##iz
##فوق
البطل
fact
نجري
hahahah
mimoune
ياعم
dine
تذ
##ضير
##ania
kuch
acha
طلاب
فالي
تبحث
حقهم
خليهم
ملح
اخواني
ضروري
الشتاء
7al
##uss
##ba3
##yal
##کی
منقدرش
عمو
ولكم
minist
##راويح
##kam
##gle
مجموع
buy
porte
ردة
قابل
##علاش
##انش
ماكش
والاع
الصهاينة
ومد
يتب
🤣🤣🤣🤣🤣🤣🤣
بنتك
قولت
kenzamorsli
مباريات
rassi
الميدان
bers
بزوج
حالي
سقوط
صحتك
طرد
كوي
##لتش
##ييين
المجيد
ef
ub
ضك
مذ
##ثا
##راسة
##raoui
chel
ونفس
خليني
pris
سرقة
##yyyy
زرع
يول
##رمضان
##ذرة
الميت
الجد
##ember
الصدر
##inggal
اتحاد
عدل
اساسا
بخصوص
##tr
##ᅧᆼ
بمش
علماء
mounir
##بس
##cation
المجد
العطر
##abia
##سمو
##الكش
##ررر
photos
rs
##وں
الياس
المقا
##وفة
ديرها
لدى
لشعب
ftor
تقدري
hah
##het
الفو
##عيات
adam
يفرحك
خت
##😩😩
##ستها
##ادا
متاك
ابني
والمش
بمناسبة
قلتها
وفيه
يوبي
mede
اومبعد
zakaria
يغمزلها
fla
kun
بره
##هولة
##صوم
الجنسية
##lih
وجدت
تعيشي
زعيم
نضرب
وجي
##ло
##لينا
##tien
الدخول
##وليش
يصرا
اطول
قراية
situation
ريس
##ديقين
##راجي
mata
##حتش
##khel
قاعده
سلامات
الخيانة
cm
mur
اكي
##ating
الفية
##قتنا
غيري
تحير
الاختيار
count
esse
yeb
ykoun
ترت
##نی
##نيات
باخت
وسايل
##اقب
وراني
جينا
الفقير
المعتقلين
за
طار
##rim
##pon
اتفاق
heart
##مسخر
foden
وتعالى
femmes
tkon
تراه
ذوي
صدر
قوت
##pak
##قرار
##ھا
##sso
علاق
لمح
اجبر
ادب
cool
مازالت
nesrine
القرارات
طرق
##90
##ﻴﻦ
ماير
امى
##فعال
بعضاهم
prend
المريض
arr
yn
جارية
يرفض
##اطي
الذهب
veulent
زهرة
قادرين
كشغل
##2727
##ولوجيا
##كب
البس
##هدرش
kifach
حبا
يصرف
خطير
##issi
kabyle
ساهو
own
##any
##ماك
##illi
und
اداء
شكلك
داري
سابق
##ouar
malak
تيليفون
خدمت
المعلومة
زر
##nar
##ورنا
الساعه
الفعل
غيرهم
مشاع
##حكام
ولی
تدعم
تيزي
cin
zar
تكل
خري
يده
##صدر
##لاس
المل
بالاح
sait
conne
fout
عجز
etr
يحيا
ely
نشرب
لقيتها
stara
##حالف
3b
لدينا
نوص
##غفار
##جري
maman
##روة
تحري
##وقرا
استعم
محس
باشد
##وارد
الاعلامي
عالمي
polit
ig
shar
وقول
##yet
##しゃ
##lillah
amr
يحترم
##しょ
##الاف
التراب
money
ودع
نزلت
break
cri
بتك
عاط
さん
الضي
##قتش
تحرير
بعت
يقولولك
وعندما
t9oul
مظلوم
السماح
ked
van
وبل
##بض
##cess
ويجعلها
لحرام
ممثل
ببساطة
😂😂😂😂😂😂😂😂
ghal
اااا
حطي
##wh
##tem
السحور
كتابه
ibrahim
طاقة
mit
रह
##てる
واحب
يعي
##ذيك
اسوي
wa9
وسلام
فالجامعة
vien
##اليه
الساد
little
وبلا
يصنع
جيبي
طالبة
تيك
طحت
غرفة
تتغير
بدر
يكونوا
freres
true
ولكل
احتمال
الجامعي
##بكة
جيبو
انقلاب
نضت
promo
ign
شفي
شارع
عصر
نتكلم
١٠٠
##ﻤﺎ
يخمم
chaba
disc
hya
nia
لربي
##حص
الحبيبة
تحقق
مبادي
حالنا
##gique
قصص
contro
درتها
صراتلي
الشرفاء
ted
##فخ
##😄😄
##بيس
النو
تمنيت
##زمان
تكفي
بعضنا
barcha
psy
جالس
حضرتك
tz
جوي
كفر
نجد
savoir
مشيت
مسافة
بسلام
اصلاح
##خخخ
مكنتش
الواد
رسمي
رحنا
##زوير
feeling
jer
##ouda
والدين
الحياه
التقدير
##ables
##شيل
##ديري
سمحت
جابت
ويرجع
hyat
لايم
الشقة
join
طلعو
##form
##ليلة
شعبي
##aaaaa
حقيقية
##تن
boss
ball
yf
غد
نبع
##طيكم
baik
ضيع
usa
سنا
فقر
لحب
another
يعلق
cheft
nul
rh
😔😔
##ique
##van
##اباب
اسرار
boudj
belek
درتو
تهبل
اسبانيا
normalement
aziz
مفهوم
المها
##ايما
##arn
##ibe
مكانه
قصدك
##هدا
##xe
المطبخ
الفيروس
الصديق
يقود
تنحي
تنجح
سبحانك
puasa
##5555
حمل
##jid
##🤦♀
##ونتي
العقول
النسا
الطرف
يشارك
marwa
ارواحي
مناطق
يعرفون
temp
yjib
جبل
كـ
هيه
##zia
مازلت
##ندن
racha
تعليقك
pie
##iness
انط
ماستر
وتغ
##وجة
ومب
المخابرات
ded
sent
سحر
عيسى
المدارس
واحت
الحظ
بالدار
رابيا
##ullah
##khol
ومازال
pack
habit
طريقه
mf
ندار
##كوا
##ghani
sih
غالبا
nrml
espoir
fek
sidi
zad
ورحم
##ㅋㅋ
chans
تخلاص
يجيني
hehe
triste
omri
msg
makach
mubarak
ありかとう
##وانا
##ستقبل
##nach
##وكا
belk
نعاون
##rahman
u2066♥
قلوبكم
##فاعل
طبيبة
blanc
الفلسطينية
وواحد
##くれ
##ونو
الموقع
والباقي
شيوخ
يتس
احوال
بكرة
نطالب
salem
account
اجتماع
yel
خواطر
مزوج
موفق
##fl
##mb
engl
شرعية
yetna7aw
ثابت
دال
کہ
##شب
##قلق
اسقاط
##لهمش
اتى
يحبون
email
rend
しました
##hed
##lai
العشاء
quer
يومي
##ots
عينيه
قاتل
##سطة
##وصل
##yed
##جور
والبرد
الحش
##كوبي
jouer
37
يونس
😂🤣
##ンク
##ابين
يسلك
مدنيه
concer
تساعد
عبدك
feu
everyone
fini
naj
##mission
نروبلها
dun
جلب
ديني
##افيا
نفسو
وهنا
vivre
عسلج
bukan
bun
فلب
##تهد
##uff
الكوم
اخط
poin
lokan
rahou
##حشم
tahun
national
cul
sound
جيهة
تشعر
##مضي
افكر
بشار
merc
##enez
تاثير
المناطق
since
mø
اورو
شوم
عفو
##します
يتغ
علامة
##uses
##المشكل
##ppi
وكذلك
exem
farah
جبن
فكرتني
kbira
ووسع
##mite
defin
يتج
##awed
ينشر
تصوير
emi
جين
##vin
##واة
##اهلي
بينكم
الرابعة
وعليكم
different
##qt
انصر
##عدك
يختار
meli
##صون
العادة
##فيف
اعضاء
مساعدة
amed
وزاد
الضمير
rayan
##جليزي
جنس
##وظ
##نادم
العت
##حدد
##حمة
تبت
##ومونتي
dim
flo
##اقت
##رتهم
مثله
avis
قطعة
##jeb
##zf
##واضع
واكرم
يتعب
rece
ملاك
يوفقكم
31
fit
##ياطين
التخصص
وانك
الغريب
الثمن
يطير
لايت
mesh
انسانة
absol
9ad
غض
وبع
##lation
alham
متن
##tag
يبني
لحلال
تدرك
mera
##versaire
toufik
حفظك
امثال
ngo
رواه
🥺🥺🥺
##مزال
##cul
##حون
والذي
الحقد
##لفل
حكمة
##بقاش
لسانك
لغيرك
pada
##hid
##جنة
والديكم
##ستاهل
##itar
للز
علاقات
اتق
تسرق
خليل
السيارات
things
km
yi
افر
بقت
##bak
معينة
بلدية
##tiful
الوزراء
بنو
تفرق
##ᇀ은
##اوتي
الغني
لصالح
complet
edu
برق
عاف
##gas
##خين
##는
##제
الاعل
quelle
روية
حسنة
جدد
haba
morning
fas
rm
بوجه
الشوارع
انتقال
##hip
الاحزاب
دراري
اعطى
الكيان
sl
رت
قرر
لاول
kheli
يقف
naz
عييت
علوم
والشهداء
##عععع
تذكرت
معلومة
food
صم
واني
🤦🏻
العديد
##صحف
##mee
شرع
rek
اكم
رات
صاير
##vu
##صية
والمن
والجزاير
ونشوف
تخمام
كبيره
بغا
ghe
يضع
##زاى
program
mind
واخذ
##ايفية
nassim
dernier
شوا
##ايت
##ra9
ghani
babak
bhai
تهدري
##young
annees
lwa
villa
yhab
جوان
حاير
سلال
##صوص
الكف
##برت
شعرك
##وكي
##ضات
##ولت
السابقة
الفاش
وشك
##نده
بكلام
دوما
lkhir
cry
هى
١٢
##نط
##صالات
##んて
انظر
الحجاب
##خيرا
لخضر
المسلسلات
##fel
العلامة
بالمس
اختر
##لتنا
الذرية
بقية
رحمها
##rrrrrrrr
commentaires
فقدت
##patkan
jad
زلابية
سنتين
fach
##شرات
نبقى
ترتي
رجلا
التغريدة
pens
عالية
##هالك
##sou
##ral
##وتش
تمني
confi
u200d♀🤦
اسيدي
09
بوب
##حاح
محر
plaisir
##استاذ
khalil
يهمل
واصبح
##رررررررر
3ndi
السلطات
manifest
اضع
شيطان
الليالي
الطاكسي
محتوى
ayah
during
07
تفت
ہیں
##دهم
##امنة
اموت
يحقق
chat
naf
بكرا
rahj
##yez
بنفسه
الجنرالات
uz
طري
يولو
والارض
العنف
وبحمده
اتخ
##ندق
الغاء
سيناريو
##راكة
balak
##hammad
##peau
medi
نهاي
القراية
gho
solo
خلاه
طارق
##حيان
##awi
taj
market
ارس
دوم
وسب
##nation
##son
##ﺮﺍ
الولد
المقب
المحبة
المياه
##ياده
السنه
نتلاق
بسكو
شكله
مزالت
نوايا
9ara3
wtf
opinion
yok
कि
تحشم
baghi
بطاطا
وفقط
مختلفة
يرجعو
تابعونا
doesn
kor
وكون
##دونا
وخير
الدينية
regime
pk
حلمي
ضم
laa
##افا
مشاك
##عيف
such
مناسب
casa
خايفة
ndi
سون
##زت
##lala
##atar
taha
ينق
stud
امازي
##زززز
تخلط
عزيزي
الصيدليه
wow
عادة
##رص
الحالات
ايمن
تحدي
يخسر
amb
##cole
petite
##دينار
banget
certains
zen
اته
مكتب
مفتاح
العمال
العلوم
neh
يومك
الضوء
##😂😂😂😂😂😂😂😂😂😂😂😂😂😂😂😂
cute
ati
##سرو
واز
امرك
##bai
عطا
مطلب
##boune
نكاز
والاخرة
المجالات
while
##gou
##اعل
##وكش
مدار
repres
ابتدايي
بھی
كرا
##ませ
##aly
الحاد
الكرام
الانس
تغريدة
شعبها
##واهب
ghay
base
نظري
mour
اتي
ناز
ورت
##jh
##اتمة
الحلم
الشديد
الشركة
القريب
جنانه
walakin
راتب
هيب
ية
##تياب
اسهل
disa
عمرهم
maybe
حاسة
obli
ble
ارو
##عهم
##طيهم
الضريبه
البرنامج
lba
بلم
حبه
نقط
##처
##الن
المومن
الكورة
ines
اهلهم
raouf
لقر
ramdan
asl
تطور
فارغة
اخوكم
الولاية
detenus
cœur
gw
nji
pm
taa
wen
بفر
توقع
##🤦♂
المسي
لاق
##وموبيل
##عبين
الكفار
##تكر
تبالي
cha3
check
قصيرة
bayan
للوطن
لفرنسا
وظايف
आप
##ارم
ماسك
##ماشي
يهتم
##لطف
mliha
ديمقراطية
ailleurs
باف
زق
ستو
سراق
##hane
##ieurs
يجد
مستق
يديها
سحور
شام
فراش
وقيلا
لاغ
معرفة
##داخل
اعلامي
tod
هموم
##rough
without
u2066🇩🇿
##zzzz
قيام
معرفتش
ذهبت
bye
dil
احتاج
##حف
##عدت
chor
يحسن
ويعافيها
n7ebek
israel
kis
##👌🏻
التالي
ونتوما
يسجل
merite
جابوه
السيتي
للجامعة
لصاحب
موتى
putain
ثانيه
حنون
عو
##ذير
##3ad
العجب
رواية
يحوسو
##ييير
الطلاق
تته
يسير
admin
🤣🤣🤣🤣🤣🤣
القبور
3omri
المفترجة
vite
بروف
توت
السكن
##عدد
اشعر
dirait
benz
الاساس
oran
خز
💔💔💔
##ある
##ティ
لاين
الحشد
##منة
اليسا
شيك
عمتي
##rif
شكب
esper
تعليم
الرياضية
طويلا
bina
bande
lj
صال
طاع
هجوم
يرضى
##kal
##زول
##ited
روراوة
اساسي
suite
سيرتو
غسل
##غري
##باس
انامن
يبانو
تحبس
actually
الخرطي
##빛
full
قروب
لزم
موف
ملع
يفو
##953
الستر
##ياسة
الكتر
tok
ابقى
##ender
##cile
مستعد
serieux
ماعليش
sleep
42
##🤦🏻♀
العوا
##elha
ومر
##جيك
##quement
وزو
criti
تنتقد
ضربت
beautiful
ارزقنا
cest
ht
nga
occ
##عدو
choi
اليوتيوب
محال
رايس
kano
barca
راسهم
u200fاللهم
طالما
##ffffffff
تفسير
الاربعاء
attention
prefere
38
lad
بگ
يتنا
وجاي
تخي
مرسي
##ario
المعروف
##العسلوج
يرزقنا
الاهتمام
المهدي
##ᅧᆯ빛
cy
تريح
حير
دبي
يرا
للحين
ونصف
bless
احداث
mouch
b7al
دن
سلامة
لبر
##السلام
##enta
ومك
##uta
اشباه
##cip
hicham
rbi
خمم
مربي
يي
##همة
واجه
دارا
خرجنا
press
معندكش
معلش
كوكب
##어요
zohra
اواه
تـ
##✌✌
##ياق
بساطة
##عوبة
تشبع
هههههههههههههه
tchouf
zem
مراح
😕😕
##ет
##ature
la2
رابور
البالون
فالدنيا
الامازيغية
صاح
seh
بعب
الاحمر
الجنو
الدست
حميد
sortir
الموسسة
داف
طرح
👌🏻
##درك
المحترم
لاسيتي
يعجبني
تحفظ
الجامع
مهند
vrais
تعيشو
طلبت
التفاصيل
derniere
important
anniversaire
hana
ميه
هشام
ورو
يـ
##یس
##نود
##ياع
##ready
بالماء
النه
ربه
نجوم
حماية
اقدام
pcq
الفاضل
عاوز
اناوب
وتقبل
مشهور
وصفة
dje
awal
ملخر
nouveau
ساهم
عبي
الكام
##ليكسي
تنادي
داكشي
وعندى
##ちゃん
bessah
ress
##لتك
##vv
##ياك
##atan
الدواء
واشفى
يمهل
يصيب
قرارات
سمو
عوا
##70
##enir
الامين
belie
عيونك
drari
hhhhhhhhhhhhhhhhh
طريحة
عذر
##وقت
الاقصى
عيباد
تقدير
الاوروبي
jas
ابر
تواصل
حاض
حارس
##ينهم
والدي
الحوت
ماتح
##ينيش
بطاقة
المخت
playlist
##قابل
##تيات
تحرك
##جيال
الطلاب
##ناتى
##كيلنا
كرسي
يبداو
##같은
kount
mout
خض
ظالم
هكي
##ール
##itou
راض
islem
تدفع
mich
دينك
القرن
houssem
الوصفة
كورة
##7k
##ضيح
through
kayna
must
mustapha
جامعي
##iiiii
getting
##يعني
##royable
grat
ضيف
😘😘
##ura
##طرو
##کت
اليمني
ابحث
يبدل
تفاصيل
head
وماشي
perdu
دورو
7ad
ykon
اگر
##٣بنات
والمت
العز
اوليك
يته
الغيرة
ساعتين
pretty
مفروض
تزيدو
##امتزوج
tranqu
l2
كافي
##pla
والديا
mail
##ومش
##read
التراويح
already
الولي
toh
##waj
kaml
mbc
وجودك
والمسلمين
فاطمة
loukan
ومراتى
bref
رحيم
سروال
شقتى
غرف
هطرد
##ки
##enge
وانامتزوج
وحدهم
rahim
##pai
##ateur
العربيه
##😘😘😘😘
##woong
012727
كربى
##95353
اناوبناتى
وعندى٣بنات
01272795353
##تاح
##ton
واقيلا
الدزاير
الصاب
sa3
##iko
اهدي
##pect
بقر
عايزين
وكيلهم
##رافية
الحلول
كومنتار
ناكلو
##집
haya
جنوب
حاضر
ذويه
##صرة
##اری
الباير
الخد
وتص
##هوية
وكلام
##هادات
##اااااااااااااااا
bm
قش
##ريفي
اوب
##زمات
khass
كنز
تحترم
result
balti
frr
vr
то
مهد
##routine
##reg
الشنا
facon
حكايات
علما
فاست
kamu
حينما
limyoung
بالدارجة
limyoungwoong
zaw
شق
قياس
وكر
امره
تقود
للاست
سبور
الضو
service
bledna
زيتون
التصرف
غالطة
حنونة
##나의
ماعندوش
okh
tkha
حدي
نحت
##سامة
##rb
البرا
##طيط
todo
تبني
وعندي
aki
حكيت
kamal
اذان
الاقامات
##사랑아
##ᅧᆯ빛같은
##나의사랑아
##ᅧᆯ빛같은나의사랑아
bid
الاسيلة
##سيال
روس
##😍😍😍
يشفيهم
الافطار
nzid
reda
زفيرة
واما
عنكم
بالمن
مخك
بقلب
##shan
والحزن
محتاجة
بكت
رحي
يوك
##cja
##👏🏻
##اييل
##chement
اعيش
##حكو
مجاهد
يديرها
حالات
##ديولا
خاوتنا
113
اللقاء
pem
هار
##بش
##بور
##ami
##cter
##فاو
الاير
##لوز
##usi
mez
##غيض
الرجولة
عميق
سقسي
النفسية
الكرسي
تسليما
feri
توس
لڨ
##ター
يشت
##فكرة
##ساير
rakom
المواقع
sabrina
tarek
wakha
7am
##tto
بيش
مسلمة
تخدمي
ismail
شخصي
خدامة
ntoma
حضرت
positi
total
96
بقلبي
تافهة
##بسم
##chin
ليستر
lain
اساتذة
الانبياء
المستشفى
ندور
لطفي
الحمام
بلغنا
snap
حية
##fc
##cont
وبدون
قلتلو
dert
تجيك
دينية
فايسبوك
اضراب
9albek
poste
arreter
اكتشفت
independ
mna
سني
مابي
التخرج
متر
season
##طوب
##طوير
يديروها
ياخد
المصدر
نورا
present
وتولي
الطبيعي
الثلاثاء
aka
خونة
انصح
##اجين
chiki
الغنية
ارسل
اطار
عيدكم
احسنت
تيم
##الفة
الاحيان
معقول
القصاص
وتروح
للمنتخب
الصغار
44
jangan
sik
##راكي
الشهادة
fair
بعرف
بلده
taf
خبرة
كرهنا
غاز
قهر
##کر
القوانين
الطلب
افريل
ster
برع
2013
طيلة
kind
رة
وفرح
नही
영우
##ريسة
العاجل
الحيط
البكال
lap
الفم
ويلي
akram
الاحياء
bachir
النهايي
emo
gitu
اخطر
تقطع
##ounia
رجاء
نزار
اربعة
حمدالله
يلقى
كاذ
##قيلة
##sss
علمي
##hero
incroyable
meilleure
kter
فاض
نزع
هايلة
##ثين
##いう
العبيد
ممبعد
المنتجات
した
##yu
przy
##راقبة
الضرب
accep
half
المباشر
bgt
gouvern
75
gor
ii
كبي
##يز
فيس
احك
##ديرش
##chat
لقاح
aslan
فاقد
حان
سحب
##نوس
مند
الخبي
enne
وجبة
الغيب
arg
ادعو
للاح
djab
توحشت
ماعنديش
بايدن
اكمل
##زلي
##yz
##니
##ister
##يتم
القليل
##لبسو
ويجع
لعشية
مخطط
بمس
pernah
m3ana
ear
بكون
جهاز
صيد
كهرب
وخل
يرب
♥♥♥
##kel
الجب
##توبر
تقرى
كيفكيف
الغرام
messi
pes
تور
كاري
##himi
thou
الغربة
الذات
heal
المشاركة
المنطق
تطلق
djeb
كثرت
eau
ira
وووو
##ذمة
##inho
وانتو
يخرب
اشري
الرجلة
صدمة
videos
بلدان
يهنيكم
wes
دكت
وكن
します
##l3
العاب
##tii
الاسعار
ركبت
balik
الصحيحة
dol
eg
wila
اتك
##لومة
ماشف
##arch
بالظ
قبلها
مكلاه
الاحلام
ارحمها
##mmmm
للعالم
talk
تلقي
kifah
##حسبنا
nse
اجعله
بعي
غايه
كاع
##سوا
##owa
##win
##phi
##ᅵ제
##ती
##ماسي
haine
تفاهم
doka
stand
تكفون
hocine
selma
hos
واهل
##embre
الكاف
متعرفش
##جبت
khlas
فعله
نعمل
قولولي
ptn
##cteur
kum
sghir
كادو
##zt
العن
القم
الوصول
الانق
##اديث
happen
sousou
both
55
gay
kama
درو
ﻣﺎ
##جيع
يشاء
تمثيل
شكارة
نجحت
perfe
gaid
النهاردة
يزول
wena
زى
طاير
##هزة
العنا
ma7
##eke
وهيا
رحلة
aleykoum
3e
gab
nay
كحلة
##fri
##lı
##ـى
##ाज
السفر
##stand
شيات
selam
تخص
chak
##قلون
لقا
يموتو
مكانك
الرجاء
موسسة
##عندك
الهوى
ارهابية
u0001f90
culture
##اطو
selalu
chaud
بتن
raz
##ffe
نحبها
belka
يهديه
الاحساس
##oke
##العزيز
التعامل
##coute
system
##ﷺﷺﷺﷺﷺﷺﷺﷺﷺﷺﷺﷺﷺﷺﷺﷺ
خلع
😏😏😏
##dt
##جاة
منزل
مادار
احياء
تصنع
yeux
قصير
مهبول
المتوسط
kot
مفت
##dani
##nent
##25
##hala
والض
الامهات
اتاك
المتابعين
برافو
نيفو
اشتقت
نخرجو
pis
👍🏻
##jak
لاهل
البنك
##ayn
yap
بدراهم
تنقص
تصرا
المعلم
نوصل
خطرات
instagram
joueurs
l3a
زو
كود
##ااه
hhhhhhhhhh
pande
حرك
عڨ
نک
##zah
##ڨة
الاهل
ولاكن
sac
ايم
تحش
ney
مبدا
مايعرف
doc
##istan
واعي
terus
rouh
قريتها
والحمدلله
##carabia
بضحك
##にな
العاط
##لوات
##لتهم
اهلو
beriman
##تسامة
منطقي
jb
run
طلي
##dk
##سور
##ам
ولادي
ايلا
##ghts
الاصيل
اللقب
cab
خشين
سمي
هی
##لث
##💛💛
##arah
##ahrez
##فسهم
تحص
remi
صحيت
جديده
looking
التركية
date
kill
كليب
نهدرو
🙏🙏🙏
##لاتك
##chri
بالفعل
##لود
##leur
البترول
يترب
##بعا
الزينة
يسقسي
بحجة
##فلان
riyad
فرحانة
خارجية
##ᅮᆯ처
nim
بوا
سی
سفيان
قن
##100
والتح
لاشان
ابليس
lili
aman
اشرب
لعن
m3aha
الافلام
جاتني
memes
تسمح
religion
dream
tad
تول
قبر
##رور
##فيني
المرك
##edo
انتظ
##رقو
##قطر
##اخت
صباحك
امامه
inshallah
ههههههههههههههههههههههههه
حادث
سريع
عيا
الكو
انتقاد
##rouh
اعترف
ويقولك
السوبر
كرو
لخرين
##fal
lila
pls
ورع
يغسل
bnat
3andek
الاوايل
trouver
الرياضيات
البكالوريا
www
🤦♂
المطار
القت
تقلق
bag
espe
3a9
souhaite
الڨايد
تجعله
عضو
قبرها
نهب
##bik
##جت
منق
لكرة
##رمنا
##kher
plz
adem
##وميديا
millions
bouchra
بوف
جيران
قايم
##mam
##قك
امالا
##كنهم
لوز
##غلطة
سيء
projet
الريس
prze
joueur
سهلة
سفر
كنوز
لزوج
وراهم
##سوس
##urer
ونحب
تقوله
rabah
المنكر
شرعي
حكيم
النعمة
gente
##سكو
ولان
dois
##guer
soumia
kolchi
t9ol
##나만
mali
زول
غان
موك
وهد
सा
##별빛같은나의사랑아
##뽕숭아학당
##ᆮ어요
فيسبوك
##ayat
وتزيد
##رحمن
mosta
conta
verite
임영웅사라
임영웅hero
임영웅별빛같은나의사랑아
임영웅뽕숭아학당
groupe
임영웅이제
##믿어요
##나만믿어요
임영웅사랑의콜센타
임영웅이제나만믿어요
lid
شور
کسی
##vant
##لمو
راى
التحرير
متاب
##جيم
اخرين
ماشفت
##خخخخخخخخ
حاولت
الفضيل
البخاري
##وقراطية
##fet
##san
##ضن
##tttt
##hilab
يبد
ماعجب
فاهمين
hiba
##fed
##wad
##ضت
##9at
##amos
الخال
وتر
وترجع
##veux
chaine
مدخل
خوتي
اغلق
يفوز
میگ
الاحتلال
بريطانيا
نلقا
توجه
مجب
##rent
##bh
##💞💞
يااااا
الشكل
##لقا
##uts
##anga
ربعة
boul
المشهد
مضمون
ويعافيك
تحريشة
idir
sali
تضيع
##ماه
##ودع
بده
لكبير
بنتها
nothing
viol
الاصلاح
خفيفة
english
lr
مهوش
##phe
##نايي
الشب
وشنو
##ريقية
الاسراي
تدين
مناش
remember
التسعينات
##view
بغيتي
البليدة
voula
ذرة
صراع
غاب
فی
وده
##هاا
لاحق
عليكي
البرت
الخلا
النقاش
صحبي
##ric
عشت
مكاف
song
nta3
ويعطيك
oth
تلا
##مول
##anis
##لوان
ياش
وتد
تبعد
سيية
##mente
بهاد
نستنا
اضافة
psg
لاحظ
rita
sweet
ہو
##كتو
##ليو
واين
وجب
2012
##التالي
لديهم
##ارجي
##itha
##قدام
info
jure
صاحبو
offici
classe
ادمين
against
فكره
لبل
##fk
##صام
##ارقة
##اجب
sa3a
diam
الغباء
mazel
حكايتك
tkt
صوره
##ڨري
##🙈🙈
الرف
##ستغرام
##ومبي
تاكد
نجح
تبعث
azz
خوا
وحم
##rie
##ᅳᄅ
##پي
dek
مسرح
بدعوة
تصب
مقام
مانت
البيضاء
الشرع
problem
7it
ace
kek
عميل
👌👌
##wen
##صحيح
##laire
اوراق
##dez
تجرب
aicha
paci
برمضان
##شفاء
ركب
قدمت
السرطان
authoranes
ville
mati
كانش
##جعه
الواجب
شعبنا
تعبر
kml
جاري
قمر
##oha
##قعة
##نعة
##رجم
البركة
الفراشات
sauf
##cee
مثقف
وحبيب
بشوف
نقرى
report
السرقة
تنام
دمر
صفة
لولي
الشروق
mechi
تشفاي
soire
##تمبر
##اخرة
##zigh
##shorts
درست
##ــــــ
ضعيفة
journaliste
fleur
اكن
عظيمة
##واري
اعل
بيح
محكم
임영웅shorts
いて
chof
partir
البلدية
tjrs
ahaha
util
الحرمين
السنوات
متم
مشتاق
##usa
##قطاع
حقق
تصفير
ستة
حكوم
##9999
لقطة
يصح
##هورة
##zl
##inya
combat
madj
تاعه
amal
تشو
appelle
nanti
جزاك
group
7ata
ضاع
نبيل
هول
##سار
ليلا
##تيهم
##قدروش
##ike
بركا
belmad
علامات
نرم
##قاب
والاج
امال
الدليل
suka
confir
تغلط
##صيد
##جامي
##😠😠
##ales
القاعدة
lebn
الطبيعية
bio
حداد
باسمي
##finement
تاجيل
البسيط
hr
##hir
معج
امو
الدرس
اوص
##ويش
##entot
الجزايرين
مخد
##kif
quelqu
عاودت
مفيدة
bem
لروحك
##تاع
recu
عمك
بتقول
marah
مخابرات
##افيش
terre
خلقك
بلاصتو
##ᅧᆫ집
dl
لعي
##bon
##💘💘
الغلط
##ديلة
ماواه
مقر
akan
internation
طايرة
سامع
##itude
sommes
episo
3ab
ajou
bib
और
##غف
##محمد
##hara
##ision
واخيرا
البريد
القايم
لانني
perd
التوبة
##تاغ
keluar
خايفين
يسعدك
jaya
صواب
##بلة
##فقة
منظمة
ليكون
الزوا
باق
الحمدالله
عيدك
خيار
prive
للابد
مغترب
راية
فليل
##غوط
##kad
ومنا
تقراي
اتحدث
شفته
وفوق
نستطيع
محبوب
الورقة
listen
imi
بشيء
فمي
كهل
لندن
يريح
debat
التلاميذ
اووو
يمس
يهرب
##ريمه
bos
bant
حارب
ضل
##fek
##هذه
##طش
##طفي
##ﺮﻳ
##خلة
##بيح
واقول
للحبس
يعلن
بعدا
##اريك
dias
algerian
ازواج
جامعه
المدني
قرن
الرايس
سراحو
مكنش
rue
تنو
مايم
مقولة
نفع
يري
يرك
##nan
##bit
##ذج
العشرة
بالث
##اجيل
inti
##زيك
الغضب
توقي
doi
نسكن
للمال
mix
rindu
staracarabia
low
nchof
##jk
##دان
##ثالة
##ميك
##ميات
saison
ومو
##وعية
اسمحلي
رحمتك
##حرز
بوي
تظ
😊😊
##dak
oula
##وقات
يشتغل
##hamza
محتاجين
كالعادة
jen
sf
s3
##wor
##9s
##9al
النحل
فالغ
تخليك
bagh
وصاحب
existe
المنجل
والتقدير
##benlachhab
##flika
jum
ria
##cas
##amal
ايوا
##وناش
شعبية
قتله
سلسلة
الاكثر
ptdrrr
موهبة
spa
ودك
तो
##انتي
الحومة
للعلم
الصغر
يخب
فلما
نستنى
فايت
حشمت
رخيس
بيريز
##jas
انص
recon
تسلك
style
مهتم
ditem
ينتقم
militaire
لاحولك
النهارده
human
##كيكدة
رقدت
3y
ايب
سناب
غز
يزوج
يبلغ
##fit
##سول
##uve
##uru
وتعب
اعلن
##هورا
مقابلة
احدهما
سمحلي
الايجا
فاهمة
هاذاك
علبالي
moum
بواس
دمت
##wak
##حادية
##くた
تشارك
عبلة
توفي
نعطيك
مانش
##ments
بصفة
عدت
المجاهدين
مطلع
yasser
ماشاءالله
يخليكم
اخذت
prix
وسيلة
پاک
ecoute
بدم
جمل
شرك
شوق
فقت
نيش
نيف
भी
##ym
##ᅮᆫ
الوي
الجل
##دوب
مجد
mont
جزايريين
تيوا
مواضيع
cir
ykha
حسي
سواك
كلية
لقينا
##66
المحب
##ايلية
tol
بلاي
##اريو
baraka
kd
صناعة
كتي
##بولة
##طى
##たし
##خواطر
##🏽♂
##во
##ريها
lag
##ويين
شيكور
##olha
##فتنة
rouge
150
ناقصة
جماعه
exemple
##غيل
ماغ
العلاج
##liya
وممكن
فران
تفضل
bouz
وهكذا
##yyy
flenn
مراكش
lit
حقد
حاف
قيادة
##ﻮﺭ
الجيران
##ayan
وتعرف
##عرفة
##عليقات
guess
perio
##ظمات
malheureusement
حطو
ذباب
غباء
مكر
نحترم
##nam
##3r
##ences
anta
##lea
eng
##اقامة
مستقلة
يسترك
اللعبة
حبيبة
حالا
والوقت
جايب
رجلي
بيته
واسعة
confiance
ecr
mic
site
معروفة
الحفيظ
##سيان
يتن
يحضر
##iene
maison
تعبير
contraire
تلو
ريب
شراء
##bien
##طيت
##ль
السلف
التاس
##بعو
bientot
درهم
جدتي
alik
saying
choco
band
sante
ببعض
حامل
عاب
واسم
الجانب
عملاء
بعدم
اتفرج
aurait
نداء
رمز
souhailabenlachhab
filles
wld
جهد
كاد
😉😉
##スト
واصحاب
معلب
boucha
داها
##وناكوم
##اذن
شعارات
بمث
خطاب
الاعراب
rum
yon
حولي
حظر
حجاب
💪💪
##الوا
##تيلي
الدجاج
##ميهم
ايي
ilyes
boud
حبات
صاحبها
لعباد
yarham
البحرين
everything
رسميا
ein
اﻟ
بتكون
جيه
حفتر
##71
الشوق
الدولية
##ssou
بدلت
hamed
الرابع
زادو
ابتسام
يسترنا
btw
تغيرت
الجنرال
yom
فغ
##بص
متاخر
تقف
fier
wali
##😂😂😂😂😂😂😂
خليفة
هدوك
باعت
ترتيلا
het
mend
تسك
مطر
يعب
##رانا
##ﺎﻥ
##رافي
ماا
السد
كيفي
##tiha
##دمر
تحطي
احفاد
استه
تقع
##aref
share
ماعندك
denya
regarder
kkkkkkkkk
lhad
##وتك
##zie
##حلو
##yens
##ايين
الحركى
اخد
##ندب
مقال
يهز
عالمية
الاولاد
يمنع
اغلبية
سباب
##nis
##czy
##ماق
للانتخابات
ابناي
بنسبة
cong
رسايل
المحل
quelques
senti
سهيله
##❤❤❤❤❤❤❤❤
الحلوة
fatihah
البايرن
3r
eza
fake
غصب
كومونتار
نرد
##7na
المالية
مينا
tue
guy
ولادهم
chanson
نبيع
نطيح
هلك
##نايا
مابين
##عدى
الفاف
يبغ
مقود
internet
قادم
points
تذهب
زيك
طون
گفت
##ثلة
##once
anim
##ميزة
ويج
فرقة
وسوف
يصور
يجيو
cru
حينها
##يادات
جماع
تسيير
hes
سالت
ميب
مضحك
##عاش
##fie
##에
##aram
والمد
##حده
السحر
السوء
الفوضى
يعرض
وبدا
وحسب
ينظر
مبرو
##dulillah
وياك
مكتوبة
العنصرية
celle
rester
بامت
ورجع
يقي
##ej
##omo
##alil
ليله
##asy
##ety
مولا
##biya
خوات
يصبرك
ياختي
حياك
خلفه
وكمان
ظهرت
bill
four
issa
pur
ycha
##تى
##وننا
الشريعة
انتبه
##اليات
يومنا
موح
حيط
mahdi
gae
ويشفي
خوفا
النفوس
belmadhi
لوي
🤦🏻♀
الادو
العزة
##اودي
##دوري
rafik
بمجرد
vacc
نفكر
الاشهار
يرزقكم
ferme
##یری
توفى
thought
ко
صوم
فست
يفرق
ても
##دوك
##بيبي
##hari
##ويض
بلادهم
مغربية
المجرم
##تحيا
used
##عندما
ترض
جوار
حروف
لحمد
##kch
##cze
##test
الشافي
الشركات
اخرة
ابوي
setif
##عتبر
کیا
الوزارة
ورتله
ecole
ينام
##قاي
##ختي
##🙃🙃
فيت
الميم
العيا
اخوة
مشاريع
ارغب
خليت
##gues
عيوب
couple
القدرة
mtn
الحاجات
نفوتو
فوازير
raya
فعلي
##💋💋
ماضي
متف
الامراض
اجداد
suff
بشخص
بينه
متوسط
tengo
a5
##راز
للجيش
##حيين
لمع
faux
لانكم
once
المصرية
retard
##فنها
رونقا
مهيش
بديل
جلال
##hba
##اناش
##راث
الجرح
السفير
اعراض
واعوذ
غاضتني
ﻭﺍﻟ
double
gout
i3
لض
منس
##mila
##abet
left
تحليل
partage
##ghol
تنق
الذيب
بعضها
والمغ
لتن
##oudj
يعطيها
dgn
vue
خيرة
##😪😪
##اليا
##ايلات
##اهير
الكه
ويم
##teur
##هيار
meet
لوح
ولل
للاخ
ta3i
دوبل
الذهبي
تهدرو
مفق
##طراب
##てき
ماقال
البث
يسوي
موقت
وحس
bagi
asi
وهذي
بصحتكم
grace
retrou
التلفون
kia
tzid
yzid
##زيت
##ناف
المفر
ميات
faz
شوارع
موالف
تنح
الرعد
مستواه
مصاب
##ctor
hayat
السلمية
pon
حجة
دف
كرت
##dat
##wed
##gad
la7
الدوا
يعيد
مسعود
##خلع
احسب
اسامة
kau
للمش
الشيعة
قولها
tema
مافيش
زهري
يفرجها
gerien
understand
idi
pure
قلها
كحل
##cek
##oussama
مشاهد
كيفية
ارمي
ارهاب
نجوز
autant
3alam
امنوا
comprendre
nroh
الصادق
نوري
きな
すき
##طاش
##gia
##シャ
##ناكم
##oura
ماكو
الجبال
shu
ميتين
يتعلق
سبيطار
43
pts
فضح
😂💔
##less
##95
الشدة
الدولا
اخدم
احذر
hadra
عبدو
عايزه
mnin
plusieurs
voix
chwia
##مب
##ged
العظم
changer
الطاقة
##ــا
waj
peine
##رسول
##ists
واخت
شعرها
حري
ريتو
شط
١٥
##اذي
##سير
##خش
##する
الرضا
##aran
الجه
##tili
اكد
##hhhhhhh
##طاليا
حضور
wrong
sele
ترضى
ضحية
ياما
##bad
ولايات
##لتني
اكتوبر
##osh
form
الانتقاد
magni
rele
yro
##قان
##िल
##🏼♀
تتش
اتش
artic
داخلي
حالتي
##طالبة
abdelkader
بوجود
zineb
طاعة
قصف
كابتن
الذا
المرات
##رفان
الصديقين
##كلف
تحارب
##هدل
عملك
لباك
pea
mery
ahla
سبورت
مزالك
شافت
dommage
##👇🏻👇🏻
icin
vale
بغل
تانية
سوري
##play
##فاه
##대
##الناس
معركة
##ores
البكاء
اخوك
النب
مسالة
ونزيد
khat
مجانا
يهبل
المتع
gua
نتاعي
برشا
idee
literally
periode
sand
اصح
تصح
##iche
##वा
##ياسي
##chir
بالكم
ياص
مولاي
لقى
تويت
مايك
سلامتك
جارنا
wled
##هاية
##رابي
##قدس
فالليل
mod
يبقا
المجاهد
مطلوب
قبايلي
يعلمون
نسمعو
العيون
سيتم
foto
تضع
رنا
مقط
##قلت
##البة
الملف
واول
##اااه
##inez
liha
قدوس
وحدا
عبرة
##فعش
اعتقال
manich
يتحرك
58
جوه
دمع
راعي
يرف
يغلط
##3rf
##да
انشر
وتجي
بدنا
##طوله
عشاق
عينه
نطق
##ماجيني
بذات
صلاتك
الصدقة
radio
🇲🇦
##nour
##اهرين
كانها
الخاطر
lead
وجزا
##deb
مناصب
صباحكم
minutes
نظن
##chofo
ياليت
عصير
170
block
maghreb
النتايج
cos
led
مميز
##ثار
##يهالك
النقطة
مدني
يقع
april
##ـــــ
compet
بيتزا
حمدلله
التصويت
بيناتكم
wanna
##يقظ
ache
lors
خف
شدي
فكان
قبيل
##cing
##وليس
يطلعو
كملو
يكشف
##صفات
صحاباتي
fucking
ktir
ستي
ظالمة
##ala
##ああ
##ﻴﺎ
##رياضة
بيدي
soeur
##غيث
ورزق
حلف
كوبي
##moud
##نونة
املك
##قدوس
الخاتمة
الطويل
مدين
فرصه
يقين
بشوی
maroua
##ics
ahlem
لابورس
##لاحظ
inchalah
nø
sra
جراح
دبر
نسكت
😭😂
##hn
##hra
##erci
##ouba
المسكين
الصعبة
around
نفاق
ياخو
mouna
appr
franchement
partout
b3d
😍😍😍😍
مقارنة
rit
мо
دما
ضاقت
##😇😇
والاد
والديها
الاوض
تحيه
content
phobia
experience
##يان
##ڨم
##روهم
##oria
requ
اسعار
ربكم
بقاو
##عليم
میشه
disent
بيدك
قريبة
guerre
fera
hir
msk
ردا
عـ
قادة
##az
##なく
##ात
##😀😀
##ابنا
العسر
التقلي
وبكل
يسكت
يدعون
يجبر
##لفون
##quee
stream
نعاني
لسنا
شغال
العميقة
episode
nss
nun
بقد
##rane
##قري
##خسر
##راكم
moch
fight
لكلام
يقولولي
tea
المنظ
يكسر
جيعان
يخليهم
nari
ارم
تسبب
##طبيق
##ся
الاكت
dekh
##ikom
##فرت
حتما
soli
plut
##فقر
كملي
##مسخ
مطار
comprends
توكل
الطيبون
aurais
باختصار
douk
fol
nsa
phar
ترف
جت
لذي
🤦♀
الماع
الحارة
القوات
lebih
مشوار
though
نحير
الاخطاء
قالتلو
تراجع
نكونو
الحيوان
lamine
لنفسه
afrique
ختو
##كما
##mp
##87
##7ba
الحانوت
##وتر
nez
khar
محكمة
اولادي
لليوم
الزيتون
##🇩🇿🇩🇿🇩🇿🇩🇿🇩🇿🇩🇿🇩🇿🇩🇿
الوجوه
oo
خلط
##fir
##وتوب
##めて
##chra
بالاض
##اكثر
##ميص
##ويق
قالولو
اسطورة
دينه
وابدا
##😁😁😁
الاختبار
malade
يعبر
##یب
##عرض
##تان
##ضان
##कार
والل
الحديد
##اشير
تقرير
liye
##وادث
insha
وذويه
power
leli
برم
شركات
غنى
لاصحاب
##lii
##اليوم
dapat
رايه
kare
halim
والصلاة
كذبة
زعلان
hl
sli
جاد
غش
##بيرة
##uy
##ctif
##جام
##راجل
##mira
راقدة
القصور
النقاط
اعين
استاد
تقلب
online
بلعب
ramzi
تغسلي
الظاهر
##بالتوفيق
يابو
تتوقف
جرايم
blanche
بالامس
سخر
شها
😹😹😹
##vil
##gam
##قولش
النقد
يحشم
يشجع
nih
##فهمش
مالقيت
##اختي
تستمر
عاشت
ورانا
نعرفها
جابلي
3le
tj
🤲🤲
##kum
mate
القوا
وتشوف
مشفتش
parta
بتق
##روحش
وقالي
ينطق
ادمن
يستعمل
عبدالعزيز
##issent
موتانا
اصبري
واهلها
الملايين
emplo
تره
ذكرت
ورح
する
##ctive
##ضور
الخطو
فالله
حبيتي
esc
والتع
##ــــــــــــــــ
حادثة
جبهة
مالح
والاب
##فيين
اسياد
##niya
confinement
باهي
ولادها
وطنه
الحكمة
بسرعه
tunisie
fam
تثبت
غنا
يالم
아
##can
##ذايية
##الون
##بيش
fai
مصدق
pop
البارصا
الموسسات
التمثيل
بامتياز
fine
ktar
ذنو
عدي
يرم
##كلام
##mr
##cene
معارض
##روز
ويخرج
ميديا
يخلاص
##ضيم
isn
##اخد
karima
nadia
معندهاش
وربنا
m3ahom
tebboune
جزاكم
9a3
fen
sz
uy
رخص
عراق
غام
فرك
##hch
##pho
##حام
dead
##ird
##يبك
الوظيف
مسقط
بتش
نسخة
تكوين
حبيتو
المستحيل
ديننا
india
مزيان
etudiants
hedi
kara
ذكريات
سري
##uer
##wes
##cis
##زني
معمرة
##rem
الجسم
يعشق
enough
هواري
facile
##ينيو
اصابة
##ules
يدرس
والمص
قبول
ابتلاء
نزله
case
impossible
jme
بذكر
تجبد
خیلی
زعم
ناب
##شوا
##ライ
والفر
الحنان
##ahel
اناس
يحطو
تتق
sebab
اتبع
وهوا
souff
براهيمي
البيوت
##conom
سلعة
البارحة
ptdr
corr
jsp
شابين
occu
palestine
والاخرى
يحزنون
جذ
##طوا
##ومت
##mais
يبقاو
اجري
يهود
hear
adj
عرفنا
محترمة
يعطيهم
لافامي
سورتو
باللغة
اسماعيل
bhal
دقيقه
ولت
##يو
##hb
##のか
##enda
ليم
بالناس
امهات
الخالق
chk
enjoy
يتابع
بلادو
abi
فردا
fifi
نحاول
وينك
واسع
اقولك
الحسابات
amazon
kkkkk
くん
##بته
##hr
##xy
##امك
راقي
السج
التونسي
للفر
متحم
##وتة
احشم
اتم
بنين
project
##😭😭😭😭😭
ماعاد
ديالهم
الكتابة
شكلها
bekri
الطبيعة
مافهمت
kifeh
تليفون
이
##shi
##oute
الدروس
##وكس
ماتعرف
parad
حمزه
راسنا
توحشتك
##youcef
tidak
نهاييا
czy
deni
l7a
اصلح
دوش
عاص
ملابس
🔥🔥
😍❤
##sab
المسيح
العشر
اخوتي
اعجبني
تقنع
##صرين
تفطر
مبادرة
حبوب
كاينين
عامر
خاطرش
نتاعنا
##ference
ابتعد
type
الملايكة
anglais
مداير
مسمى
مقاطعة
version
went
سواي
قيد
يرضي
##جيه
##7ek
##الوريا
##ستحق
##اليين
شيش
rai
ينبغي
profession
ضحايا
egyp
pauvre
ajoute
pin
مطرح
وی
##بلا
##ło
##🏃♀
واط
##ودعك
##ديرة
montre
##atif
telephone
google
kabylie
boo
فتو
##jat
##ﻧﺎ
العنوان
الحصة
وبد
موراها
محرم
اجنبية
اللخر
##ortun
اثار
ركز
bestfan
ارادة
sooners
مكم
🔥🔥🔥
##ight
##hmou
##الخ
##الوش
العطا
البناء
يتحكم
اسلامي
الزك
تنش
اقوال
اعتذر
ghada
وطنك
ويدير
affaire
gouvernement
nis
##ولات
##گاه
##رجاع
الكوزينة
الصوم
وتخرج
بيضاء
وباقي
صاحبة
قولوا
تكلمت
celeb
ile
لطي
هانت
##تيني
##دی
##نے
ماعد
والعباد
##اعدك
العلى
الجنس
عمب
تبقا
##aaah
اصوات
الغد
سيس
الرزاق
يهنيك
لحظات
مصطلح
##ftar
قبايل
##ooooo
جماهير
😂😂😂😂😂😂😂😂😂
nationale
يااارب
سليماني
5ater
دبا
زرق
عجيب
##sha
##ثمر
##서
والكل
انتر
souhilab
المصالح
##gner
الفاسدين
soiree
plutot
سعي
لی
وني
المركز
الكلا
##ghrib
##وارديولا
نصايح
شخصا
3lia
اختلاف
لساني
zanchi
dk
lli
vida
wad
جير
حوس
قان
يضر
##طنا
##3l
##جوج
##لاته
ange
ma3a
##elt
ابوك
تنبح
stre
روحوا
جايزة
واسكنها
استطاع
bestfanarmy
vin
zbi
نايب
##هايم
الادار
يشد
jeu
اقراي
اللذي
عاما
وزن
kanet
##يييييي
صحابى
جاوب
فاعلم
رووس
fdp
kut
لور
مبي
सम
##قض
##ре
##65
##لاشي
بالسيف
الشجرة
الينا
khra
2011
جنازة
entrain
ضحكة
الاتصال
والدليل
خمسين
linda
believe
health
dab
dani
ks
ضريبه
##الل
العقد
##اشق
##توهم
بيحب
tahar
ينش
لابسة
##خبز
عادت
ابتسم
ريتويت
7as
اطباء
شيب
فجر
##nad
##cement
##iner
العدد
mahi
##idad
مسا
##فتاء
##oullah
يفطر
فهمنا
brahimi
##venu
anything
так
براءة
درجات
ورم
يرتاح
##zli
##زوق
##💪🏻
المبر
##اليك
الصحابة
##goli
##ضرورة
عدالة
##تحية
حكمت
##flix
اجب
خطي
خطيك
مخلص
♡♡
##moum
##sin
##ثث
##خال
##сь
##しま
##ﻴﺪ
##onti
سيارات
mention
للمت
سبتمبر
عيشي
voya
بلغت
econom
uf
جربت
سعة
شين
##صان
##times
تتمنى
وحفظ
بشرية
##sa7
mars
##2020
المقاط
النخبة
خديجة
زوز
نمي
そう
##dro
فيقول
##ماطم
يقضي
##ateh
discu
##ضحية
يسموه
speak
seulement
تختلف
تغيض
atau
tiktok
ندو
##شفت
##jem
##rani
##ايخ
مادا
الحزب
الكهرباء
الوهم
##سلطة
بعضانا
نبات
المعارضة
##راهية
ويعافيه
##طلحات
يعتقد
مفيهاش
1er
بنة
ترحم
😥😥
##ﻴﺔ
##eld
البير
ويسر
تحلي
تفقد
تصدي
مايس
تجارية
كبيرا
رابعة
ya3ni
loun
رقاد
##pour
##الاه
الفلاح
safe
ابشر
اسامح
بنص
كيفو
موخرا
وقعت
ندخلو
viva
صاحبه
ﺍﻟﺤ
وراها
مظلومة
مقتنع
٢٠١
trying
خراب
سامي
مفيد
يرفد
##هالي
##نحن
##ذية
##فص
laisser
تعيين
الدلاع
oud
علاء
##rier
اجابة
##top
يديروا
نشوفك
دجاج
فالطريق
women
المقاومة
voul
رني
مـن
نولو
وعب
الادم
واكت
ous
استعمال
ربراب
عبادة
##bile
مرح
##ختلف
التصو
كليت
حاولي
هريرة
virus
goul
rd
され
##ضرو
##ودا
learn
اتابع
باكم
amor
وعلم
سيل
يطب
##رحلة
هدى
few
##💔💔💔💔
يوصلك
reaves
زاي
##موا
##کم
##بيهم
coming
اهالي
تفض
ايادي
اطيب
sampai
##يروح
amazing
3shan
west
تدو
غلب
هيت
##طها
##طاني
##89
##وری
التحالف
مثلي
بينها
الرحيل
المشاهد
boh
مريح
ديالنا
الموتى
صبري
الحدث
اغلبهم
بامكان
دیگه
business
عذرا
wer
##غلي
##tant
##도
##hass
##ماعه
بالاست
يسوق
army
سيار
plat
صديقة
ظروفها
##bravo
souhilaben
اقدم
تيب
سويت
كريمة
نلت
##ned
##zes
##قوب
##قبال
##صن
ماحد
العزيزة
رافض
##lez
وتخلي
ene
##بلس
##hot
تتغ
وجو
amani
خيرمن
##erez
الثبات
ارتك
ادخله
##ذنب
##vient
انقذ
##ories
africa
الترجي
second
bana
fon
oz
##リー
##اللي
##اسه
##وفر
مساكين
recr
حسبت
ملايكة
grosse
ختم
##الشعب
بالرحمة
الشح
الخض
نته
احزاب
وشباب
##زيع
وقفة
حمام
بغداد
تهتم
انتيك
فوايد
يعترف
dakchi
epo
تطبق
حفلة
دات
ساد
فرو
هاا
##ولون
الجنا
التوق
##tech
اهلنا
khad
##خليش
gentil
لفطور
صوته
kheir
الهوية
مفتوحة
ااه
هربت
##صرا
##ит
الماز
##la7
الاورو
وادي
##itan
السحاب
الدرجات
انتاج
##كلش
##دمه
يمث
تكفى
زيدو
ارتفاع
جبنالكم
cand
hell
jem
mous
tent
tss
بله
طحان
فلاح
ووج
##たけ
##💓💓
الحدي
##ادلة
##ربها
التمر
الكرامة
بيتي
اصلي
لقاو
اطل
lune
##pocr
المواضيع
العبرة
drahem
التسجيل
cherche
الارهابية
والاسلام
واولاد
خارجة
ditempatkan
##くたさい
3id
fid
glo
قدي
كمن
👏👏👏
##yl
##ذوق
##لوج
##atna
##lahi
##yaa
##رداس
##رضو
اشهد
##رامي
مخلي
mano
##cts
haram
farid
ميتة
nadir
ملكة
youtu
selamat
gali
ساحة
لث
##كنا
##j3
##nch
##िए
المعد
##lain
##اكش
nacer
وقالو
##khkh
luka
malik
الاشكال
away
صحابك
هاتف
داخلة
khawti
tang
vit
يلطف
##زيا
ياذن
chui
النمل
##وكان
ابوني
صحافة
##ريقه
داروه
مجرم
اماكن
عايلتي
واتمنى
ارضاء
##فكرتني
drole
خخخخخخ
اااه
الامتحانات
bouteflika
country
9a
ped
yu
فاتو
##سله
##cam
##tah
##ﻘﺎ
##٤٢
##الان
##اراتي
انصار
##tim
مته
مسير
عمان
يدري
##وزير
بانها
تخرجي
مضى
مسوولي
ناجحة
musulman
106
aji
iza
ssi
tcha
حرر
صيف
ماسي
##باري
تبغ
يهبط
شخصيات
نشوفها
##9ach
يسمعو
الاتراك
1442
المرحوم
games
يقدرو
برامج
##らい
##وركم
الحان
##حمار
##اكس
##uring
chok
تتج
وعاي
تجيني
ta3na
وفيها
makes
الانتقال
الحكومه
develo
##تسما
ارهابي
الاوضاع
kos
ذكي
نلحق
يركب
##3in
##ोग
الاجيال
السراق
بعيني
لهنا
يدرك
اللول
derriere
salut
الاتحادية
image
eme
naa
zat
جاتك
ذكري
روا
شلل
چرا
##qi
##vy
##oufi
الماضية
ويعرف
##كنة
وتبقى
تحول
وبنت
chara
بشرط
متوفر
اسيلة
شتم
غيب
لكت
هاج
##بوك
##هري
##var
منعرفش
##chan
##orter
اوى
##افت
اسكو
يشتري
armee
ba9i
##saha
##てすね
صديقتي
##رويج
gau
دفعة
##mina
##ren
##gat
معيشة
الكا
chno
mots
يخدع
نشا
##بتهم
خطرا
##سوء
انشاءالله
casse
##ghira
jte
visa
راع
طوب
🤲🤲🤲
##كرك
مادر
##alger
العادي
العجوز
ليالي
الحروف
yaz
تبن
ماتخ
بينهما
blk
مصد
الاشت
طبسي
##💃💃💃💃
تبهديل
mouloud
rima
برس
زمي
كح
##شی
##69
بالدين
الساحة
##tain
##fait
نورك
حابسين
فوقه
fouad
بلاصتها
600
mzi
بفففف
##عور
##جيد
##👀👀
##lait
##ality
العطاء
demi
اوقف
مشارك
ابوه
##ssss
لمر
يسام
##osi
تشتري
chall
لكنك
السيناريو
منشورات
عربيه
جنات
حمو
رتويت
مطب
##ـال
الضيق
##لاية
##ينية
master
ولادو
بيوم
##عملو
##وليك
وجها
وجمالا
يقوله
ادور
##gaz
الاركان
وداع
میخ
##دعين
propos
ايجابية
radj
##dha
##زينة
##انز
##enna
واهم
##elna
تحزن
نتح
##وصي
نفوس
بردو
هههههههههههههههه
خلاصت
##نننن
الدراسي
التطبيق
tranquille
souhilabenlachhab
ری
##rk
##ايعة
الاولي
اموات
##tiw
للتو
الصفر
تحلب
##باره
##unya
قدور
اصدار
na9
عشية
roz
الريي
عقود
##beh
نستناو
قبله
قبلك
##てすか
kifkif
قضايا
❤❤❤❤
b7
yuk
هندي
يثب
##ودية
##ستشفى
##tich
القلق
##اااع
##عمري
david
ارقد
وقته
شعبان
##🤣🤣🤣🤣🤣
entend
crimin
المنشورات
ناط
##نينا
##حدين
الباي
تعام
تحوسي
##رتنا
تشجع
##فعلا
meninggal
##illet
بوست
الحملة
phone
yassine
ثراه
سفير
##antes
##سانس
##khra
##وناط
تجار
ستاتو
تستعمل
ma3and
farouk
سماح
whole
وولاد
فاشلة
ارزقني
number
غسلت
reponse
##しょう
95
lis
سنان
فلت
لتش
ۥۥۥ
##وطي
##زياء
الره
المقطع
inch
تدان
ord
maym
appar
العلمية
النيف
##كرو
##جج
##ित
##🤦🤦
##laoui
كيفها
وسخ
ash
##نياء
تطالب
ترمي
تتوقع
serait
توفر
rentre
degage
الثانوية
ministre
دمعة
زوال
##2t
##🏃🏻♀
##الفه
انثى
##eder
تعيي
mela
abdo
افعل
لكني
baz
الثانيه
وصدق
تكونو
djer
الابواب
##اكمة
auth
##خرجش
اقتصادي
corre
الشهرة
افتخر
rapport
الخلعة
ملهيه
ddine
ترشح
صبي
غب
لشي
وولي
يله
##ظرة
##시
بدك
يمتلك
bener
همك
playing
drama
رهبر
لافاك
ngi
rine
حديد
سانت
قود
نغير
##fy
##ولاد
##vide
##الدين
##ياودي
الفشل
واحدا
##ــه
بقايا
djou
lyom
استاذنا
المناصب
##rinia
##فهاء
النظافة
فضيحة
يحشيهالك
feriel
بمد
حفل
نفت
نطا
نلبس
نبعث
هاجر
١٩
منتو
##ماسية
الباط
##قتلك
##دمو
##بعين
يسرا
اتقوا
اشفي
##طوار
مقلق
prime
##ities
نستنتج
العلمي
الموسيقى
خدمتو
يعيشو
##nnnn
الخيال
##yahia
زكارة
avo
clo
dadi
سرو
##ضاع
##بيكم
##ستك
الخاين
##urt
الزل
sob
مستحي
buff
جناح
players
تريكو
ذكرك
alhamdulillah
dzair
pom
تات
سكيكدة
لفي
##تشي
##was
##3an
السمو
السلوان
##heur
ويحب
sava
الاسماء
وصار
##ففف
##udes
القدير
looks
##👇👇👇👇
3i
qd
##صلو
لاا
##قيش
اخطا
##سبو
استمرار
ra2
يقرر
اللون
الذنب
lycee
اجعلني
الخطرة
quelque
جيشه
نعيمة
يقدرك
قرايتك
##قوليش
ensemble
استخدام
iphone
##e3
بالتو
ياسمين
##يتين
القوي
اوف
الخرا
الصواب
غيرو
##جيين
##اريف
##عتنا
menha
تاكلو
سيدك
123
المخرج
رجعو
avc
dites
بايع
makanch
million
عاونوني
loo
ذاته
قدوة
##ماني
##باش
##جك
##جارة
##78
العبارة
الحروب
ايفون
ligne
سياتي
تجوز
عقله
الصحه
يجبد
سنتيم
بيده
وغيرهم
مقاطعه
venir
times
kir
lun
وتي
##شعر
##hum
##sn
##🚶🚶
ano
بالتح
##ذاكر
الجوية
motiv
الزعيم
sei
##ansa
الثلج
شكلي
جايح
تيبر
abdelhak
موسسات
التصعيد
نضحكو
gasrinia
المقصود
ron
zu
زايدة
##رنا
##oy
##wl
##же
امانة
##افضل
having
استع
abah
ينص
الرخس
مقاب
عاملين
شبعت
شافو
pute
offi
tayeb
سينو
mdrrrrr
yj
حانوت
فاين
##ظفين
##ан
العاص
##حدى
##اسبو
انتشار
##iez
يحلب
reuf
بلاده
hadja
افطر
محافظة
naima
bensa
راكب
pote
الابتسامة
تيارت
واحفظ
hypocr
يخليها
250
البطاطا
مسوولين
تطيح
##faa
##9ou
##2o
##ﻻت
فالناس
##وسه
youppi
داروها
biar
قتلة
##rouche
muj
مزيا
cite
fli
jc
roma
uche
##with
##ارواح
##ريتي
##واغ
ماكل
والسر
الشيتة
عندوا
##وسين
abou
parl
حياتكم
##bic
همهم
frer
ههههههههههههههه
##ukan
cvs
##شوفي
فرحانين
المقابلة
واقفة
##حطاط
centre
برعاية
سوايع
dla
خلك
يون
١١
چی
##رهم
##شير
##فتي
##ﺒﺎ
##olna
reine
يسما
khan
ادعم
همین
شعبه
2010
يودي
غيمة
احتراماتي
يتكاثر
##nardo
بفار
ثقيل
مدو
الميك
وجماع
الاماكن
يقرب
##روحو
pain
عطاه
رجالة
سمعنا
اضن
مراحش
المطلوب
meilleurs
clip
الاعلان
u0001f90d
jvais
جزي
دماء
عظ
قاص
##sl
##2ol
##ası
##شيطة
##انيك
وندير
الامنية
نقية
الارقام
الهواء
مملكة
لهاد
ندعم
autor
bnad
معاناة
التجارة
comprend
رسمية
lotfi
hassan
houssam
fham
pose
دلو
طبيعية
كنه
ملام
##زور
المافيا
الحرم
##hech
الكور
اخيه
استخدم
beg
يمارس
##سراييل
عايلتك
box
احبه
المحكمة
depart
##eeeeeeee
nombre
تتحرك
فراغ
مسبقا
sisi
صدا
مخص
يزال
##ريط
لاسب
النك
تنص
تنصح
يستغ
وصلو
وصعب
coach
mouh
u2066✌
elect
ابدله
nenek
ql
باجة
ملوك
सर
الجهة
##رشة
لحال
لتر
نعمه
تهرب
##insi
سمعتها
🇩🇿🇩🇿🇩🇿
word
kadar
ميمتي
wonder
يستمرون
azi
cad
dali
kent
nal
og
طبيع
🙂💔
##hdi
##land
##بيعة
والتو
##rement
الكوس
للث
##lahoma
##احسن
abir
##cipe
تصبر
مايكون
espa
organ
الضر
bernardo
ﺍﻟﻌ
repub
cred
effe
serious
magnifique
fama
jt
rate
wed
ووا
편집
😘😘😘
##hl
##pal
الموم
والما
والحق
الافت
الحكيم
الصوره
الصداقة
dua
##owi
##عهعه
سبعة
ge3
يطيحو
الوظيفية
m7
سهر
فني
قومي
##لكه
استغرب
##اناة
بدع
ريحت
avril
اثي
المهنة
الحسد
تلب
😂❤
##bir
##ءة
##2al
##amat
##ahla
death
##حبتي
chin
abed
heb
يعرفها
kelma
نزيدو
التنظيم
اقصى
slimani
champion
##habamir
pati
زود
##تون
##وعي
##wt
##✨✨
##ناا
واذ
السعر
moyen
بنينة
يومها
مولات
وينت
##عتر
يرمي
طبيعة
croire
وحشته
المرتزقة
مافيا
120
طابلة
وايا
##هج
##bay
##いた
##😭😂
ياارب
##abl
##eto
اعف
sev
nod
proud
key
mouhamed
صفحتنا
انسانية
ويروح
فارق
milit
الشهيرة
ecouter
democratie
نقدرو
kata
##3am
##ثرت
##ﻮﻥ
##لوي
الخضر
وبنات
شوون
بتحب
fifa
##pper
نفوت
واعف
صدفة
9at
gate
hram
nl
w7
بوض
صنا
لحي
##لر
##sal
##っちゃ
ماجد
##isha
القيام
stan
تدفني
surpr
نعلق
mafia
dessus
loui
ua
بطي
حركي
صندوق
##jt
الحالية
الكذاب
##abdou
##افى
النصيحة
##pping
##esso
الاستخ
##gole
صدرك
touche
عالميا
choufi
ماخلق
kul
بكي
فمو
출처
##شيت
##kra
##adel
ياغ
##تولي
##a3a
ellah
استح
##تهى
محافظ
##اقات
اسمح
ضيعت
alaa
الحلوف
doma
ورفع
##och
##صنع
##فد
##ڨل
##tten
ليب
##asion
متخل
وتربط
احلا
بعدك
الراتب
trend
نخطب
بلادكم
رحل
الاصابات
ثالثا
etranger
aam
biba
hdi
kona
pul
بعمل
ثلث
فوات
##ةة
##fham
##sung
##게
الالت
المهي
##adh
##سيين
اليتيمة
تقضي
وبالتالي
موظف
بتعرف
محبي
وماذا
logo
الاستغفار
##بوط
##باينة
صفات
واخلاق
avance
السلبية
عاجب
السكوت
zab
تاس
زا
##kina
##قلو
##طري
##جمة
معز
الجبل
تعامل
متغامرش
ايطاليا
بسكرة
نشكر
marre
لحاجة
يحبها
واحس
مازالو
##♥♥♥
flow
بريفي
jesus
انعمت
بالاضافة
dina
رقب
شود
لهو
##sar
##ھھ
##ابها
##تيال
للعمل
enter
##uth
##اربو
##طوهم
sudah
المساعدة
##درس
واسجد
وطننا
نعيشو
techni
continuation
pareil
hara
بواش
تث
كافة
لسا
##gni
مادير
##ahom
##اطه
اتصل
يقلي
الرسمية
تدعو
bizar
يكلم
المستشفيات
insan
تتزوجي
3adi
65
pel
تلوم
فاد
##っは
##ولوجي
بالحق
##lib
##قيها
يحكو
اتقي
الذهاب
تستحي
المتح
الضعيف
sahur
pret
masuk
تركب
صاحبتي
الحلويات
صليت
فالعالم
استثناء
اضعف
يالح
تعديل
الرجالة
موجه
قرينا
rappel
ade
edi
ihabamir
про
طع
طاهر
فريد
كالم
يور
##اوني
##wda
##هامة
##اتة
##annya
##ديين
معش
كيم
التهم
##اسين
الكويتي
النجوم
ونور
##ازه
frero
الهجوم
تحته
نظرا
اهمية
محتاجه
pacifique
agh
تلمي
ذب
٣٠
🌺🌺
##7ou
##ench
##asih
عمليات
ميلان
##صحا
تشعل
rais
تنسي
يدها
ادفنها
تجارب
##oile
المغت
kech
##ینی
وامث
##eriem
cuma
التجارب
##وووووووووووووووو
يثبتنا
هیچ
jp
ler
حشم
رانيا
فاها
كفو
##صاي
المتم
معم
السلمي
ويجيب
chabab
تدريب
تدرس
rahoum
##فوطو
تاكلي
زعفان
kayan
خاصه
صداع
نظي
oklahoma
مرضت
presid
صبرا
ارادتها
الفرنسيه
لوحده
يختلف
choix
نيشان
tari
تلميذ
خوي
الاوان
##حدود
السيدة
الشاي
الكاذ
ومين
لمعت
ميعرفش
يخون
تختار
##معية
desole
فرات
الاسرة
وصاها
الارج
mereka
ستبقى
عشانه
الجزايريون
امریک
calmi
بلعاني
کردن
صهيون
١٤٤٢
gad
seni
ug
دمو
هابط
وبار
يوز
🤦🏻♂
##مود
##زها
##48
##onte
المكتب
السجون
##emment
الكافر
مشكور
عمران
وجامي
##سكينة
محسن
الرغ
الرخ
مقبول
cover
مناسبة
بلعقل
transfer
عزيزة
9bel
assa
ثنايا
سبت
فوج
كرونا
لوم
##iya
##とか
والعم
التطور
lache
الفين
الخوا
ابونا
وشه
ya7
تخفيض
موسيقى
بحجم
وقتنا
ومنهم
##رابط
##كولا
##جمعة
ماشفتش
بالسلامة
يتعامل
وغيره
تاخد
تربحهم
ydiro
دزيري
fant
mum
tard
دري
قويه
ودين
گل
##هون
##فجر
##200
المفض
لازال
للرجال
الخلف
الخسارة
النعم
##بعيد
##ingat
conc
baha
meng
bihom
akbar
للاسلام
##لناش
##ologie
حاسبين
##ennent
##frg
3ibad
##temps
cn
##امته
##امرات
الشيب
التافه
تعشق
##اجه
##سبت
متعب
##naa
يحرم
welcome
##ذكرة
##الحمدلله
قاموا
لوحدك
rumah
ic
مالم
وور
کم
الالي
##ونتار
الحظر
تعلن
الدقيقة
##ney
وزراء
##kiw
زوجك
حالها
##issance
نجمة
مطعم
##وخة
3andou
ويبارك
pizza
hello
issam
ابداع
##فيسور
الكارثة
difference
عبدالرحمن
ﻋﻠﻰ
remix
mg
حاص
داده
عك
عماد
قلك
😐😐
🥰🥰
##xo
##しく
##ッフ
##نادي
التالية
lamia
ايوب
يخفف
ينعل
خوها
rahma
hbb
beddar
😭😭😭😭😭😭
بالوظيفة
تدمير
ありかとうこさいます
ااااا
حو
خوش
سول
عزوج
قرة
##ترك
##nek
##zim
##pada
##🤬🤬
##ende
لاير
##لوف
امنا
##قدار
الوالي
اسكنه
وشكون
بعنوان
تخليه
cafe
wej
كتابة
##gai
بصحة
مهدي
خصم
##lication
تصويرة
يادرا
gn
smail
table
حومة
رجب
كع
مواجهة
##للاسف
##بى
##bha
##ـع
##しか
##inte
والكر
العذاب
البت
القصف
القراءة
ويحس
chikh
ماتس
wa9t
حيوانات
2022
bench
بحس
##cap
عقوبة
##vile
quando
خدمات
envoyer
hour
فتي
لري
مرم
يفيد
##احت
##lla
##0h
##조
##ショ
##يرن
انتقد
اليمين
light
بصراحه
order
والوطن
making
المخدرات
##llll
دراهمك
impression
##ったら
موجودين
وشعبها
لعدم
cuis
eche
خون
طور
فاني
##سري
##xa
قاللها
##ــم
tuh
بكثرة
تحبني
ندري
الفرص
شفتك
rasa
saber
تواضع
مستقبلا
voiture
bj
baw
iy
rwah
ثما
خبير
شربة
فحي
😡😡😡
بالثلج
الصميم
الصندوق
##وفه
يتمنى
ميلة
##نوش
ill
مكاين
يوتي
assia
تاخر
طولت
يقدرنا
منتصف
محبة
ارقام
aqui
b9
ding
fur
nir
sari
تديها
##مها
##نادق
منيتك
##aku
الفصل
##imer
استمر
تتن
condition
exo
##فلسف
ابنتي
رياضية
interest
##unggu
شيخنا
calme
فاكر
الجاهلية
feli
mba
mima
اري
تظن
ترفض
حياء
سيرة
وحك
يخلف
##ᅵ대
##ıl
التدخل
امنية
##اطير
##جرح
اطراف
بوح
trait
appre
rashid
rouhi
##استر
talking
future
sterling
baa
zeda
فطر
نوال
انصحك
##isan
اوو
وعافية
chacun
tach
يمت
قلبا
مكروه
note
##yech
##www
garde
ثانوي
سقطت
معلاباليش
خطاياه
لرض
##فقد
##ति
##👎👎
فيديوهات
المولى
##وكو
ومحد
##ibil
##اوهم
ديل
sey
##رشحين
يقلق
tudo
benna
لحظه
بقيادة
##تنيش
##iiiiii
للدولة
جانفي
الارهابي
fes
jsk
تدا
تزيدي
इस
##قاع
##ля
##amina
التبر
التنمية
تحرش
ونساء
الطابلة
يهديها
الافريقي
علابالو
فخامة
jsui
punya
3ndk
ادعولي
cito
lkha
تاه
زكري
##e7
##wj
##7ak
##oue
الجاهل
ويغ
اعجاب
تحرم
ومخ
وبص
خيرك
الغم
nafs
يمات
مبالغ
للاق
بهاذ
بالقوة
obje
بلاصتي
champions
kifech
محروم
soul
طن
ووال
٢٠٠
🙂🙂🙂
##🤦🏻♂
##روفي
يااخي
##aman
##abar
ويفتح
ويمكن
الوض
##ــك
تقلك
##علن
نقولكم
نفطر
وكلنا
قطعت
ایک
رشاد
اللحود
متزوجة
arretez
certain
cousin
برت
عجل
##cak
##pm
##زانة
المفيد
##eds
##رجي
##طورية
اهانة
dig
حسد
racon
##غماتي
يرسل
وجهها
ورغم
المحلات
musique
سماع
الاهلى
الادمن
##indre
يصبركم
يرحل
عڨابهم
beddarja
تونسي
ضاعت
كفي
يفس
それ
👏👏
##وحد
##tal
##ندا
##👊👊
##نافس
الحصول
##adah
بنعم
الغناء
##gher
ينع
bouss
مستغان
karena
ماراه
ماشاف
فاتح
للتواصل
العمومية
اقتراح
solution
epoque
bda
dounia
rø
خاس
رعب
سنت
شجع
غلي
لهما
لحتى
##یان
##اليت
ليامات
اسنان
قدرة
بنتو
باشه
تغيب
كتلة
والمح
##cover
والعلم
جداتي
مزلت
المطالب
معندهمش
جعلت
akhir
نتفرجو
longtemps
القضاة
dw
nz
s7ab
باني
ثور
مولودية
يث
##شات
##يوم
##dek
##هدي
##ples
##💩💩
##هاي
##اريت
الحقيقه
##روقات
التبه
##اكو
الكرم
يعجز
##كنش
الطاهر
##ردد
##erson
sihem
##erai
##eraux
demander
water
اراضي
يعاونك
##هزاء
aide
ببر
توي
لديها
متي
##مشاء
##🤗🤗
##🇹🇳
فيق
والاق
التري
ويلا
متربي
يومن
abbas
##زمش
الاساسي
الارادة
ممار
بانفسهم
للحياة
لحقنا
##gether
غربته
رغبة
الاعدام
الفراغ
لقراية
lø
بريك
ثواني
زند
فاف
قاضي
هزيمة
وضحك
いた
##voi
##نطة
##پا
##سيير
القايمة
متعة
##وتهم
##rok
وعليه
نقه
##fier
might
bob
barak
تهبط
نعرفهم
grv
etaient
madame
الاقتصادية
اعطينا
yamat
تشيل
agora
ennemi
##league
خخ
داء
ضارب
##علق
##زعل
##ありかとう
##िर
##कर
##الما
كيوت
##emo
الخمس
##زوجة
مصادر
قتلوا
جامد
تركت
##vier
sym
سلفي
3ando
قوليلي
وايضا
سوبر
وتقولي
strong
زلة
لاتش
چون
フロ
🙏🏼
##مكانش
اللهجة
مابغ
والحب
##ربع
##لكن
##قيام
اعجب
ونعرف
تقص
ولدك
يقلب
مخلوق
##faoui
white
صغيرا
اعطاء
يماها
القطري
كوراج
البشير
عاقلة
النهضة
pharma
شيشناق
klo
ros
افس
داه
وايد
##63
##ーム
بالون
بالبيت
##سيب
##اكوس
تتعب
lire
##زيم
##antine
محاربة
##سنه
state
##god
يجيبلك
رجليه
جمهورية
##فيروس
##ᆼ시대
영웅시대
تالمو
سطر
صريح
لجزاير
##tan
##جى
الحارس
هاهاها
##معليش
sok
##ممم
##key
قريش
صبرت
عيطت
wassim
اره
دولي
عراقي
مقدم
نما
نفتخر
يرق
پس
##ہا
##dit
فيمن
##enne
##esi
العبو
##قدمة
##aymen
متط
النم
اليهم
يتبدل
modi
recom
يخوف
##ungu
secre
مثق
عشاء
بكاس
اروا
pros
المشاريع
akhi
بمح
لتحت
##عهدة
شوفوا
اختلف
واخا
والكلام
elections
##سياسة
##ستيانو
charge
الخامس
##uuuuuuuu
##😭😭😭😭😭😭😭😭😭😭😭😭😭😭😭😭
wkwkwk
زلزال
nedj
ust
ايتها
بفض
شمة
ظاهرة
عيل
##दी
الصدمة
اخوات
ella
وعسى
بلغة
##bili
ينصح
##pped
1920
التحكيم
##phy
7md
kus
lond
حقيق
ووووو
この
##كانيات
المان
ماقدر
الاحب
واحترام
##itie
البوم
امنتك
فالف
لانت
وعار
##anto
pourtant
الذكور
bonheur
نستعرف
صباط
##حكمة
اصدقايي
رضى
ظهرك
تيواواطي
jr
يالي
يولد
کرده
##sara
اللام
وموت
##يييير
الانظمة
محاض
##لاتهم
nov
تحبون
دوام
barka
بالكلام
nty
نوضي
زادكا
winner
جنود
نجيبو
منظومة
يجعلك
جبران
dha
heda
ral
جرا
غايب
هالك
يشي
とか
##де
##inha
البصر
وتلق
النواب
تشد
اصيل
يدين
مرسلي
يحبه
عيانة
جامعية
مهني
##vive
assass
pier
player
اشوفه
والاخلاق
رفعت
العطلة
طموح
احكام
جة
شراي
لكون
يوس
👇🏻
##لش
##قود
##زله
##خلاص
##🤩🤩
بالحب
inte
##yap
تقر
يسامح
##jaia
ريف
الضحية
خرجوا
abdul
السيطرة
ma3lich
الشخصي
##خدمش
نلقاه
معندناش
anyone
واكيد
prince
ita
هان
##غاة
##llh
##لابة
واک
##يدون
اخراج
##ووس
اسره
وبك
لهج
اجتمع
عباده
مستعم
الهجرة
بقوم
اياه
بوحدة
المجرمين
لعبت
اعطيت
hhhhhhhhhhh
yadra
العشرية
simplement
ماقدرتش
insulte
المهيمن
gul
keda
sba7
خن
ظرف
كافر
##ثيمين
##ви
معني
الكعبة
اليكم
مسج
##ــن
الاسلوب
sif
عقبة
والاحترام
track
سياسيا
الاغاني
sorti
##ında
هنالك
clubs
kabyles
prochaine
accepte
بمثابة
ct
fc
جريمه
وضح
これ
##عاف
##dji
##64
السح
##tian
يعمر
##iler
##دمير
##ووه
haz
الطايرة
code
##بالغ
##رافات
##ilable
watu
السعوديين
النفط
exactement
ﺍﻟﻠﻪ
طرابلس
اثيوبيا
utk
افرح
حجرة
دوب
فلع
##بث
##gon
##gement
##のに
الملح
##arang
التما
##مينا
##يبات
تحطو
hach
seba
ماتشوف
اجراء
يستخدم
بالمناسبة
رجليك
تروحو
##صيلة
##ـــا
اشتري
kasih
pani
sult
حارة
ورضا
##لغ
##ثية
##بيط
معاش
##ssam
andy
عقاب
حزينة
##دخلش
shoot
محبش
cherie
بحقوق
ولماذا
yetnahaw
slimane
mokhtar
ibtissam
ابعث
discuss
aربي
acho
deli
kro
nama
ترو
حماس
دحم
زورو
다
##vs
##83
##😕😕
##ايط
الاوسط
##تيست
##ربش
الفوق
almo
تقال
اتخذ
وحكم
توام
rock
وصاي
3labal
علماني
souma
الابد
kaya
عدن
الافريقية
kuwa
nature
الريسطو
swa
جري
ذرية
شاط
##pn
##طاف
##ستم
malam
بالدعاء
##قدين
الدرك
اوه
chbab
مسوي
استقال
الامس
اتزوج
كيفهم
khaoula
ينج
##عتهم
شكپ
بطلت
وكانه
صدقيني
امريكي
ننصحك
ساكتين
shot
سهرة
تماك
وشعرت
ولهذا
samira
مجددا
فركوس
جنون
سارق
طلة
نندب
##oir
##ثلين
##ونجي
##omi
##elles
##atch
كلن
leila
saat
ابنا
تحديث
seen
اصول
##دران
مانقدرش
ولكنه
المصير
ابتسامة
##خلوش
tban
ndiro
femin
bloque
يجمعنا
الامازيغ
##undul
حركات
لهد
وظيفة
يربي
##مح
##cus
##نسبة
##bor
##🇪🇬
##lies
الدورة
##uto
تقنية
اللجنة
medj
طيارة
جاءت
السرعة
b2a
hati
hast
ترتاح
شاعر
لة
هين
هرم
يطر
##zn
##ذوك
##ﺎﻝ
والاص
العون
العشق
الجسد
البوت
ماتتم
maissa
مالكم
##onton
action
تهز
رجالها
bnt
ترابه
idk
دعواتكم
الممثل
وعندك
respecte
يجازيكم
perfect
مسرحية
article
paradis
تيبرلي
62
bgha
house
jet
jss
نعوذ
😁😂
##عاود
##3n
##ليهم
الممت
##mik
الشقيق
##ووور
##معه
يمينه
تنك
##ازوز
hota
احتلال
fore
assez
sky
memb
حاصل
النفسي
نكملو
u202c
3d
pffff
ذبح
رصاص
شعو
غاشي
نعد
نفتح
##مثل
فيلو
##ستو
بالصد
يشتم
يشرح
amg
##otes
موسي
محق
المسيرة
المسابقة
gagne
dark
رجلة
الهدى
اللقطة
المسلمون
غرداية
جويلية
asa
ime
rir
ضده
هاب
##عادي
##زوم
##ас
واجر
##adji
للبر
level
samia
##عملها
##ههههههههه
moon
tao
الرعب
وخي
لتس
اياك
ريزي
myself
الضح
التحسر
3andna
##اسيس
نلعبو
ورقلة
الوجود
ريسطو
التوقيت
6undul
حدو
قطار
🐸🐸
##94
##3et
##xion
##الته
##انهم
##يازات
الجريمة
##emb
lagu
الصعب
اهدا
conn
##متنا
exist
ترند
##ييييي
لخدمة
المنافقين
اقولها
##ناقض
realite
mzl
الميداني
الغرامات
6undul0h
wis
خوب
ردت
##97
##ле
##هاو
##enni
anime
البه
تحضر
اسرع
الانجاز
اشكر
##سلسلات
نبد
##aaaaaa
والدنيا
لدارهم
غاضني
المخلوقة
fia
mj
ric
غفلة
كعب
##رقة
##かわ
التايم
##ااار
ونست
rej
ولالا
محاسبة
raf
##oulna
بقرة
بموت
خطيرة
سيدتي
ديالها
pleure
بالدنيا
rohk
الالاف
excell
الذهبية
protege
fete
نصح
##تام
##قاذ
##اتين
الشاف
متنس
الندم
told
لمو
##unt
بدلا
بدوي
بشوية
##tern
الحقايق
برلمان
ورحت
ﺍﻟﺴ
بالعقل
يفهمو
جميله
bladna
يعجبك
يااااارب
كامي
##yr
المعدل
والات
السفهاء
اعشق
تحق
رواتب
علاقه
لمرا
قدك
chaf
thread
لكلمة
يجرح
نقوله
vole
lyn
bring
دورك
عناصر
##خلود
انقله
voice
abderrahmane
اكرمه
استغلال
jin
mik
yl
zero
##기
##چه
##راضي
least
toy
##زمه
بتخ
ربهم
مجاني
lost
yakh
liked
whda
كفاية
باردة
المقابل
منتظر
فسح
##واكه
امورنا
اضعاف
94
ges
pad
قاف
همي
👇👇
##سوف
##جماعة
##تيت
dear
الخمر
##تكش
اعمار
تحسن
يحشد
الطاولة
bebe
dict
بتف
حيات
isti
بوراك
##9ila
enty
العملاء
سالفة
ってる
wa7da
##んたけと
قبيلة
macam
nsebek
محكمتين
واياكم
93
kisi
tla
جده
##اان
##غراف
##bz
##زف
##се
##😃😃
الربح
ليتني
راضية
##onya
ويجب
##رقه
ماتن
بترك
##اقم
بعضاكم
تحبك
##جازي
الشخصيات
vieux
الاحتيا
عيشة
نسمح
متابعين
ملقيتش
zedk
zwin
ديبلوم
america
na7ra9
الطفولة
شجاع
عالا
فاخ
هلال
मह
んて
##عرج
##lit
##حمق
السهر
البغ
القبي
##ويلة
انتهاء
احنه
##wa7
isa
bouzid
قتلهم
لايوجد
المخلوق
##barak
generaux
الرايع
phy
الاختبارات
b3id
بومرداس
tomor
a7la
##نورمال
information
فرانسا
hind
slo
tadi
😔😔😔
##ıg
الالف
متض
##هوب
reason
##quent
abo
desc
نصدق
بقرار
وكما
حاجا
3ami
فايده
##ـــلم
ماكنتش
الحمير
self
اولادك
##سيونال
اليدين
هدوء
فاميل
smile
vacances
cadeau
positive
3in
oe
ساق
لدين
يديم
##اقل
##یش
##pir
##なら
malad
السالم
كيس
##شيف
enga
يتحقق
بعدي
حسان
نحبس
##kaz
noor
اختصاص
wash
##body
حرامي
الدموع
##ademy
كذالك
ignor
wol
طفي
وزي
हम
##ابيع
##ugh
الاوقات
الجاج
##قيمة
##قولها
ومص
ould
##سنى
##file
لعزيزة
belhadj
كونطر
للمراة
##حشمش
المحتوى
##خليك
بالعالم
طريقك
البطالة
##فاهمو
fahem
aaa
كوريا
##mk
##ola
##ارتهم
##hami
الشيي
التوا
الفطار
شيماء
وند
##usion
بعاد
تمثال
حيل
اقوله
ستت
تستنى
ودخل
دورها
مرتبط
dyali
خارجين
##ذكير
small
التصريح
متوقع
imag
القطاع
تفرض
##نورم
حسناتكم
jom
sla
تامن
حلق
زيرو
لامي
てき
##hk
##mus
##ote
##جيت
##िया
المصحف
dela
الفضل
عندى
meche
dipl
لباج
اقوم
تصوم
مرزوق
تغفر
##مرات
زعف
الصفات
nsit
##واعش
maaf
dayer
lya
nje
vid
دان
غابة
##لما
##غلب
##مهم
##الز
والايام
##ربما
وتحب
##احه
نحضر
للمن
المتابعة
تينا
تهديد
واتس
نهارك
talent
##ورتاج
oublier
متاكدة
عزوجل
ainsi
side
wil
لهي
وفهم
##500
##また
##🇮🇶
##ارح
المول
المصلحة
تعريف
للصح
together
seem
ماتوا
##hahaha
تعرفوا
اعتبار
لدولة
باينا
drink
essaye
هندسة
ازواجا
klam
えて
##بكي
##ڨد
ليسي
الحاس
بالليل
##amin
##عدنا
##heir
save
النعيم
لهيه
اجلا
وقلة
بشري
##sais
المسيرات
مقبل
تعرفون
##ᆼ이
والشكر
##زعما
الشعارات
examen
بدينا
جهاد
ككل
مقل
يفيق
##قابلة
##نازل
##ارها
##راست
السط
##اشات
##emp
الدفع
للعب
lee
khlass
##awe
مبقاش
فلسفة
djel
mesmo
takzi
منشورك
صوتو
peace
awi
fro
kass
mte
sœur
во
بروبلام
هالح
کشور
😎😎
##wlh
##bd
##تيو
بالفيديو
الجهاد
الدب
انتخاب
اتس
عرفتها
##جهة
القيمة
مادري
propre
bayanlar
hda
رفي
سرد
صلة
💪💪💪
##صنة
##gil
##فاك
##ىى
##2i
##िन
##اتف
ماض
والعن
العفسة
لاطاي
امتي
##يبا
نتخ
تبات
شوقي
اتنين
تشتغل
وعاد
khawa
ينبح
ادنى
اللغات
لحليب
ومنبعد
بمثل
عقبال
##بطل
نظيف
arabes
قيمتك
consider
##خصوصا
##🤣🤣🤣🤣🤣🤣🤣🤣🤣🤣🤣🤣🤣🤣🤣🤣
نرجعو
المحتلة
الرييسي
3o
gd
lgh
nang
sedd
حيد
صراحه
وامي
وضرب
##ive
##hafd
##رفارة
القاتل
##roj
##فرقة
يشرف
رحمك
شفتهم
كندا
##شوفو
العموم
crush
moral
brother
تاجر
بهدوء
وعندو
بحيث
ماعندو
ورسوله
frerot
tomorrow
takziah
pelo
شخ
##vt
##3e
##🇱🇧
الشتا
البروف
##imen
##سمك
##دوهم
الامانة
##اتيك
hamdi
##وضة
trust
##اهاش
عيان
جاست
الاهداف
didin
عبادك
m3akom
عزيزتي
اجتماعية
نرجو
aq
land
طز
لصف
مسمع
##بوه
##jer
##زى
##طرت
##ハー
الاله
##انشاء
منصور
المحيط
ماوالو
احاول
لوطن
حسام
rag
سيست
عبده
balad
##cier
مجنون
مايح
زوجتي
يكسب
صحابو
chofi
المفضل
netflix
excuse
الوقوف
mental
##vision
ahh
jg
rha
تفيق
ندا
وقلبي
##😓😓
##لايين
الميس
الماستر
الحركات
ويط
تبهد
بهلول
weh
مجمع
نقولهم
##kip
فانسف
باسلوب
##oko
الهمه
##😢😢😢😢
رواحنا
ماجور
##ception
ايقاف
paye
شافي
يالا
##لماذا
##3m
##alek
##itation
تعدي
لمجرد
abu
mary
sahb
رييسا
التوحيد
decyz
gueule
نسقسيك
محسوب
each
mdddd
اربح
ترش
تابعة
تسكت
مة
##とこ
##ма
##واقف
والديهم
##rase
##asna
##لوبة
##سيكو
اسرة
faute
##pppp
dong
براهيم
بالمثل
المدن
بجانب
##oooooo
عزاء
فورا
يتعرض
يتوقف
influ
بهدل
represent
occasion
اعلنت
لمعتقلي
morsli
nheb
##مج
##امى
كيش
البوا
البني
البديل
انتح
##rob
ouv
wafa
وللاسف
نحشم
##اقين
وصفات
تكونوا
بقاء
aktar
rahmat
souad
براس
المجموعة
##طاقة
جابر
رجعنا
قاتلك
مرتزقة
خدمتك
امرنا
adalah
اشتغل
انشا
يتبعو
فقالت
mariage
##ستاذة
dsl
فاميليا
found
hors
kra
كني
😹😹
##kem
##cos
الغلطة
منحة
##miin
الشان
الفامي
ouma
بسهم
موديل
بلون
الغام
الغابة
اجنبي
stress
مخبي
لتع
بطول
rich
##حسبي
thinking
معروفين
فهناك
rentrer
علابالنا
featuring
reseaux
##ziria
وحبيبنا
جريدة
حلقات
ذر
##og
##zna
##vely
##anda
المقبل
##laf
##لوح
##amer
##سيدي
املا
الفهم
انتب
##idj
تحلم
##نويا
fazer
وليتو
boun
##khl
نحبه
فلماذا
المنح
خرجة
kolch
finir
تلفت
balek
الشهرية
تريدون
تخلف
الحضارة
single
بالاسلام
قواعد
cs
fhem
iem
oper
до
تلات
حک
صلوا
صداقة
غري
غرامة
فولو
##9der
##ﻫﺎ
##방
##اتا
والسبب
##alik
التكن
الكاتب
##imane
sa7a
الليله
لمد
##نوه
اشكال
تنظر
نسمة
مخط
يصدر
تستاهلي
طيبا
hanan
retweet
السياسيين
مشغول
cup
fis
زی
شنق
قراو
لبيك
##غول
##طك
##68
##لاجة
معذ
امراض
تعنا
الفراق
quem
وتحت
##dich
نتيا
ونق
بنفسي
ramd
لابن
عطاك
بصير
##مسح
نبقاو
##illon
goli
نتاعها
activ
مهرج
##ween
طيبي
شهرية
جمعه
مظاهرات
تربحكم
defend
envoie
افعال
مستقره
todos
candid
bss
nana
تديه
صافية
نات
ورجال
##age
##rg
##yd
الدينار
##واا
والعمل
الجلفة
التض
الخاوة
inno
ابنه
oul
ouche
تتب
موراه
تنفيذ
مستحق
##عتين
##hahah
مصداقية
##لاقه
body
sert
دوخ
بالمش
prepar
مهنة
ماشية
##9raw
والثاني
حاطين
فاقو
ماراحش
مبرر
مهيدي
##hhhhhhhhhhhhhhhhhhhhhhhhhhhhhhhhhhhhhhhhhhhhhhhhhhhhhhhhhhhhhhhh
يهودي
المنظومة
agu
bibi
tia
غلا
قواد
##عال
##jus
##hana
##mili
الشياطين
القيادة
##ma3a
##هههههههههه
اكس
ماناش
trump
عينو
صفحتك
والحين
المناسبة
l3id
جبتها
يهمني
langue
##💙💙💙💙
سعودية
بزااااف
الاعداء
clear
secur
cant
tara
يوري
چیز
ﺍﻻ
😂😭
##هنا
##وبارك
##pol
##pie
##3aw
##☺☺
##aret
امينة
ايات
oun
haut
faite
hadji
design
يستغل
جايبين
##تحار
salhi
##ويلح
فقدان
تقدرو
sekarang
الرداءة
الطبخ
major
origin
سامحني
yousra
ie
wie
تميم
تحمي
شفا
🌹🌹🌹
😅😂
##ᅡᆯ
##💝💝
##isti
quali
الوحش
حتی
بند
مبغ
نصيرة
المنصب
عرفتو
tizi
سلالة
whatsa
اعرفه
civil
idea
مجتمعنا
series
education
belkacem
بلعباس
tend
خادم
ない
##ieme
##cm
##صات
الفضاء
ouvert
مدارس
##سكس
مليان
وسدد
تنطق
mnha
##rahla
عينها
حلوين
يسموها
واجعلنا
البوليس
تليق
mcha
داب
شرات
عاز
##alah
##uite
##kine
##wet
##ﺪﺍ
##enom
maha
السمانة
recher
yazid
اشنو
##ghik
يمه
beni
ليسوا
##العاب
decide
عسكر
##🥺🥺🥺🥺
معتقلي
questions
3ndo
position
##تفكرت
##めてとう
y5
حلاوة
نقت
نحكو
##كاش
##wr
##قشة
##فوف
والخلود
الحرا
تعمر
القطار
مشاركة
elk
mea
means
حسني
bazaf
كلامهم
abdellah
besah
##itution
##مكاش
##💔💔💔
scene
الحسنات
تلفزيون
العيال
الضحكة
يحيى
aiss
b2
nha
تجب
حرج
خاسر
طوموبيل
🥰🥰🥰
##9d
##います
##انوس
deep
saidi
##قتين
يشكر
محظ
مايش
##face
##شرطة
نخسر
voy
تيجي
بخاط
##ormahrez
##ssef
محترف
acheter
##القاب
الحمراء
defense
الحاكمة
tounes
پاکستان
7b
rosa
بتي
يظن
しく
##مسلسل
##fil
##طبيع
##िय
##평
واكل
الجهاز
ياجد
##ودها
عملي
استقلال
قداش
وحط
تغام
الذر
الابداع
jami
طيبين
للجنة
decla
decision
يحكمو
ايدك
lmao
للنظام
غسله
اقدامه
امهاتنا
الوفاء
##🇲🇦🇲🇦
الايراني
keluarga
العظمى
t2
wj
بوص
سوسو
##ding
##ضمام
##ذات
##ظروف
##まて
##raha
بالصبر
##ربون
الدرب
يعقوب
saadi
مشا
##اطب
استاذي
##uty
jeb
ماتك
hadouk
بتغير
ولح
##هارات
itna
فلسطيني
voce
الاجراءات
المختار
erre
شغب
منشوراتك
speci
تربحك
idees
mansour
authormahrez
يوتيوب
gla
حوال
سـ
قارة
هيبة
##iy
##रा
##いる
##لايك
##ahmou
depo
##برين
##maa
باحد
مثلهم
يقرى
##اينك
role
##verse
مطلق
ﺍﻟﺠ
يشوفك
لطبيب
##نايية
journalistes
تلاقيت
uefa
ldc
tq
حفي
داني
🇫🇷
##gence
##🏽♀
##ला
##ｗｗ
الڤ
##بيان
##alan
الدخان
##star
الصوناكوم
انتصار
مشف
ونج
ميلادي
passa
تتفكر
فرونسي
وحدوخ
راحتي
##زيدوش
probab
coca
للاش
rahe
فلح
surtt
abdallah
يغلق
دعا
##edih
##karim
جاهز
رياضيات
نگ
نجبد
وفت
##noun
##درت
##😞😞
##🤪🤪
بالاع
##بروا
##داو
##طيات
##طيمة
##اويه
until
##صلﷺ
سيقرا
##اديمي
قلتلهم
عرفتي
خالصة
سرقت
##bert
مضجعه
نصيحه
رهيب
ترجمة
annaba
خلوه
دش
ساير
##عاب
##بنت
##كية
##uti
##cv
##pare
##قالة
ياشيخ
الدشرة
الفوط
يشبع
فيهاش
##sea
لهجة
daha
الذكريات
تقولون
شرطة
المنافسة
l9it
felic
اذاعة
القرعة
ثقله
incl
يقعدو
النضال
ld
lle
rn
titre
جواد
ففي
##یف
##ءيس
##रो
##75
##لاحة
##ولوش
الحوايج
##imum
وتعلم
ouk
##رحمه
less
unf
تتبدل
تقارن
تمرض
نحوسو
اغبياء
##issement
huma
peuvent
##ratula
الحماية
u200d♂🤦
كملنا
الملاعب
course
توفير
بالطبع
داخلين
gundo
bersama
challenge
bitch
dus
زير
نقدم
نربح
अप
##تاب
##9ad
##صق
##øn
منتش
وااا
ليغ
اعطيه
##فسدين
haa
صحراء
الطرفين
##tach
haddad
mart
المساء
##فلس
miziria
cheveux
يفضل
##yeh
يرزقها
hayda
حضارة
incom
mcm
انتقالية
1920م
ae
nkha
ببو
توم
تالمون
جدار
##blo
منحبش
الحنين
##عدام
اخلص
chghol
##وتكم
##ikum
##ooka
بتص
ولست
بشرى
bouche
الاساسية
ديروا
##عتني
تكسب
الاستث
بانهم
ودعم
نتاعهم
بالموضوع
نملك
repr
بالنفس
والنجاح
tsaw
فشخ
موجوده
betul
وربما
يفرض
علبالك
بالفرنسية
واقترب
physi
aho
mol
olm
اضح
حوله
زادة
متكون
يكرم
😋😋
##nin
##🏾♂
##ttt
##روقة
lach
##تكن
ويارب
فالن
تتدخل
تشهد
##oth
party
محطة
##وبال
##غيره
مرقده
fronti
احتجاج
auto
يوفقهم
##aaaaaaaaaaaaaaaa
يداوي
بالاحرى
##ません
الماعن
ابوناصر
cem
dele
رخي
فوضى
يورو
🌹🌹
##غلو
##طاع
##واز
##ديقي
الدكت
##اسف
الفطر
الكره
##imene
##كوني
النسو
##وقو
seed
تمسك
يمين
مجة
stup
##موح
twali
فانك
saho
خصك
ياللي
fikom
قرايتي
international
eat
sbb
علقت
فول
كير
مدافع
نون
يقيم
##طانية
الشامية
امنت
##اكا
مسح
يساره
اتمني
##biha
##back
marie
وصحة
##cted
دخان
سميد
مطلقة
##bark
التحقيق
hanya
##خافوش
التفاهة
اخلاقك
نخدمو
##👏👏👏👏
سليمة
السخانة
88
اغل
تامر
جسد
جنتك
لگ
##down
##nik
##b3
ماهم
##لوة
##روعة
الشوا
##لبه
انتها
chen
يسخر
##زيين
بشدة
اللفت
وخا
##صفير
اعتراض
الايط
ﺍﻟﻔ
المدعو
##😅😅😅
7aga
اسلامی
الالوان
تصريحات
حسناتك
رافد
##خابية
##غرافيا
9l
9bal
eva
خاب
عوار
فحلة
##vous
##💀💀
والفت
##ذافي
##ams
البلاصة
الدفعة
##بعي
faisa
وليدك
مجهول
قلتو
##vai
وطبعا
الانتظار
قطرة
سرير
دولت
decou
##🙄🙄🙄🙄
التسليم
القيوم
tym
intelli
الطيبين
وسمك
called
piece
a9
ais
tjib
قسما
يقط
また
##صين
##ouss
مننا
معرض
عنصرية
السطر
الشمة
##ربحو
التلميذ
البسب
##irt
يتصل
##وســـلم
اجاب
روحنا
ومنها
الرجوع
ازواجه
احببت
سيادة
perso
yourself
##houda
twahach
enfant
تمنع
مشهده
vaccin
اراه
روج
##بما
##mana
##حفظ
##صورة
##ーフ
ليسانس
##نيتي
##ركين
بيضة
يتهم
##andom
dest
قبلت
##خرطي
وهب
##ترع
termin
m9awda
ملاعب
يشوفها
سلبي
ننصح
للبنات
بروفيل
يعتمد
الفلسفة
chambre
الطبقة
بتوع
chwya
الالباني
الشناوي
card
kyn
sghira
خات
ذويها
غمة
نزوج
الاكس
##atu
امسك
##اجاة
##برني
##ويم
##ويوي
else
يبات
##bi3
بركاو
lok
نبدل
##قاليد
منهج
disant
compar
ﺍﻟﺘ
carte
بزر
تنسكب
للخارج
pict
ويرزقك
##ونديال
abdela
hosp
##وســـلمﷺ
3ali
sma3
бу
سالمين
##jin
##ورني
##ستيك
قاللهم
يخبط
تقرب
قدرك
اشف
مدرس
نشاط
ادرس
pod
لنفسي
extre
الاستع
ليسا
kanou
وابن
لفوق
يعيشك
ماكنت
besh
sekali
ناقصين
ميزانية
7ay
صرح
لالي
نفي
نسل
ちゃ
##ude
##ـان
##🙏🏼
##🎉🎉
##✌🏻
##ايله
##hamid
والجا
العنك
بالعلم
تعس
##imad
##قتكم
ومار
احلي
bejaia
يومه
khana
##امينات
##cture
##kich
##فقات
yech
taki
المحلية
##خرجو
upd
region
##فايسبوك
يتكلمون
##4444
😁😁😁😁
نبداو
يكملو
tengok
jung
رسو
فحل
فـي
وڨ
##the
##😴😴
لاط
malah
ابريل
لوبيا
محير
يجرو
studi
قلن
روحهم
حمير
##خليه
المواعين
##خيانة
فقراء
madam
جنرال
الاجتماع
يحفضها
واجمل
رفد
lbac
hii
mant
قوى
كوت
##باين
##bro
##7an
##28
الة
##oure
تعيا
فالاقامة
pasti
تشر
ربط
يقنع
اللوم
مكش
حمدا
##اتورية
taleb
yerham
اشتراك
##غطية
khalik
قيمتها
ndirou
bdit
bgd
##😹😹😹😹
بولحية
بلقاسم
الاسراييلي
التصوير
بوه
ذوك
قولك
لولة
##ہم
##بتها
##bla
##아
##واو
##رافة
كيشغل
##ayo
يعينك
تتذكر
بتاريخ
rami
للمرة
##😭😭😭😭😭😭
##عرفي
الجامعه
وارجع
rasi
dayrin
يابن
lkol
يناير
المعتقلون
damn
##جيريا
زالت
نبت
##hna
##2e
##omar
##ااان
##ودنا
##وفا
متمني
ايوه
تحسين
روساء
##عوهم
يسعى
##وهبة
young
مقعد
نحبوك
sampe
assim
الواحدة
اعطوني
ikut
حياكم
ferhat
funny
bismi
الترجمة
نموتو
dent
fateh
iw
sco
بحياتي
ثقيلة
عديدة
كتم
مقتل
ﺭﺍ
😡😡
##sam
##pos
##ناية
##onde
##tiens
اختها
الزرق
وباء
##اديمية
مرتي
تقولنا
##ضعفين
بوحد
والعالم
السياحة
خلقنا
##اعدات
##لللل
yahdik
eddin
خبزة
وعدد
اینکه
التنمر
rencont
تكملي
هاشتاق
تبهديلة
democratique
وكيلكم
ياعمري
rachad
nunca
نظيفة
sultan
vent
رغب
قلع
مرشح
وهاد
🇺🇸
##لفت
##lko
منور
والاك
الكهرب
يحلو
تتخط
تقراو
الغرفة
بكف
يستاهلو
mene
فوقها
teringat
الاجانب
يخرجوا
تعلمون
sabah
صدقوني
اقترب
ziyech
ماعندهم
##ريسطو
اسبوعين
mungu
اركان
##평방
heta
jun
kla
ركن
سيش
سوها
وسك
يامر
##cat
##tani
##pad
##😫😫
massi
السداد
الصلاه
##سبور
تحالف
##فرون
ميل
وشر
فرمضان
تسعة
لعيب
مالهم
akid
##adiya
المعاملة
بالعين
amazigh
memo
ماعندكش
النهايه
##hdem
rappelle
الكمال
paling
pick
politiques
i9
rjal
بوال
جـ
خبط
دلا
دود
شک
##بلاك
##9in
##74
##ку
مادي
الاديان
mami
الجنون
للعهدة
عندوش
انتقام
وتزوج
الليسي
وجدي
يسطا
تخيلي
اتعب
تشطح
khadi
soha
مقا
front
شكيت
تحبها
##atique
govern
رجولة
l97ab
نكذب
hayet
##قراطي
واقذف
arriver
numero
pesso
هتب
يزي
🤷🏻♂
##غن
##كين
##бо
##ناد
وافضل
ياز
اماني
اخطب
ويفرح
متعم
ouii
move
مستواك
nicht
مالية
الضبط
mahmoud
mouvement
دوست
mashi
ماشى
##شوفش
صغيره
demand
يلقاو
durant
##malek
فدزاير
ترحلوا
ليزوم
ao
kand
qatar
اذي
تولد
داش
سوالي
فسي
いします
##سنوات
##su
##طنة
##7eb
##خلهم
##ин
العشية
##روضة
استم
بلاء
##hop
تتحمل
باغية
تفضح
convers
marque
تدل
تاكدت
حمله
لخاطر
واختي
rayane
حضارية
grands
فهذه
المباركة
##icile
السادسة
بواسطة
stage
درج
ذاتها
बा
##خون
##خاطر
الهر
المزا
##ايلو
الدق
ammar
وعليك
توی
وصول
مانع
guel
المعلمة
pert
رساله
رجوع
الشرعي
##astro
words
كاملين
رموز
berkah
توجور
kg
lady
تده
تيري
ساف
ضايع
عروض
ناه
وذكر
وكره
しゃ
##رن
##wis
##ıyorum
##هاوي
والصح
##عداد
التمس
##برنا
##aber
etoile
تحسي
##عيها
haga
##طوبة
raja
nach
اجواء
عبدا
حبايب
وهدا
##واننا
منازع
قلتلك
عدس
خلاصة
نلقاو
ارجوك
وثق
للطلبة
generation
نتلاقاو
800
hil
mv
tna
شاع
##تاج
##طيني
##ﻮﻟ
المثال
##ادير
##وفك
##فتهم
nech
عشرات
cef
اقام
walker
للمغرب
المصيبة
1962
السيية
avenir
2009
mimoun
الاعتراف
الشرقية
##fication
العراقيين
الهاشتاق
العنكبوت
kiss
lv
lom
ذن
ही
##كه
##ﺣﺪ
##راعة
##raft
للنساء
متنا
ونروح
نقبل
تقولوا
وكلش
195
واخرج
##tify
ssr
صرنا
مهندس
toyooka
idr
kto
uh
فلاب
مقيم
هاهي
يظلم
##dina
##جعة
##ンス
anna
commer
##ومك
البص
الخيط
متخرج
chf
احسان
##باراة
##uter
liat
وقتي
##oulha
##زقه
بعضكم
espr
feh
فهموني
التحليل
برضه
حجمه
watching
مسابقات
history
ftourkoum
الصابرين
واکسن
9ot
hic
yest
زﻻت
فلفل
يواجه
##فلو
##خمة
##خاوتي
##raouf
الجار
الجحيم
السعد
البنادم
صحية
تقولهم
فرماج
archi
لبست
مايهم
مايست
كتبه
تكشف
الريحة
يديروه
كمامة
الضرايب
##كيلكم
##ension
harus
bras
##cule
##طالما
regard
صعبه
يعطينا
profite
تريسيتي
ptdrr
mauvais
التدريب
اويحيى
ainda
استشهد
9olt
54
tgh
wlk
رابع
زور
سرية
سوجي
غرق
لطف
مرار
いや
##ميني
##عيب
##bol
##해
##هارة
الدهر
##افير
reuss
بنجاح
بحفظ
##pee
ودخلت
احبكم
تشوفها
عرفتك
الظلام
هالشي
اللحظات
needs
angel
liberation
شوكة
faycal
voulez
sendiri
probably
egal
gouli
pha
udi
لهدرة
هيدا
وخصوصا
##ازالة
##ماي
##zaw
##ضوا
##ظني
##ﻮﻣ
##のは
##😝😝
المار
##مازال
معان
عنجد
الشابة
الدايم
##اسا
ويطلع
متزيدش
ومصر
##ههههههههههه
##hili
##rice
اتصالات
aba
div
توبة
داوي
التيار
يطل
كوندور
poss
المنظر
واتساب
كفار
خلل
avons
قعدنا
اخلاقه
رضوان
##بلوماسية
ياااارب
مقاطع
chahra
ارواحو
fom
nur
نل
😌😌😌
##غد
##ᅥᆼ
##스
الملابس
##هوى
فرع
مثلها
##shsh
شفتش
tweli
يفقد
هكذاك
crise
🇩🇿🇩🇿
جيبك
البقية
بالفرحة
يجازيك
opportun
الكوكب
مشكيتش
السادس
الدستوري
ee
تقيم
رفت
رمض
مبع
##نگ
##زيه
##ono
العرق
##فيفة
dey
تعازي
##جلها
تخوف
cache
نسيتو
مصروف
نعطي
الابالله
##صارى
فرحا
توحشنا
meufs
يبتسم
يغتفر
congratula
اجدادنا
lq
loulou
ost
rk
صفي
ظلام
فكانت
قرف
يوق
ۥۥ
##ھے
القصص
الفتيات
##عمله
ومكان
نتش
seu
ماتقدرش
خيرات
ولنا
راينا
اليومية
kai
الاراضي
الهيبة
للمح
خاطيه
تعبنا
عينيها
نوضو
sahraoui
الفلسطينيين
المعيشة
vib
تلع
حمر
دوار
رما
فله
❤❤❤❤❤
##عس
##يارب
##vres
##イト
##로
##لاطة
##لمت
la3b
##نتصر
اوامر
الخلل
النح
اليامات
ابارك
##رتكم
لوخرين
nap
soy
تودي
##لادنا
لبسة
اقالة
الاسطورة
والمغرب
##teri
eso
تستخدم
##اويل
##زيرو
penser
alay
السرير
شمبرة
فالبلاد
٢٠٢
قايلا
gang
رامي
طبية
💢ازالة
😆😆
##set
##حاجة
##3ak
##チャ
##🌸🌸
anj
##ستق
##نيي
##amente
تعيد
بيلو
احن
ready
##angat
يمسك
الرصاص
ادى
ادراك
اللحية
نسوي
اكثرهم
للاع
باباهم
الراعي
الفيل
samo
خلاني
##pier
asso
achraf
فقلت
##ختصر
الرقاد
النجاحات
والامان
فضيلة
ياناس
استقبال
بوعلام
9rib
slam
swe
srat
اهي
بلى
شالله
طمع
يتي
يضل
🤭🤭🤭
##nos
##ろしく
##सी
##🤢🤢
المقال
وادخل
بالنا
النشر
غيرة
اسكن
##rig
##me3
تفع
لكنهم
عبثا
وقتی
والمنا
نخت
ودايما
مغرف
واعلم
الظل
##وهمش
كاميرا
hhhhhhhhhhhh
تزوجي
طالبان
تعتقد
تتعامل
التنفيذ
n9ol
ميدان
heureusement
easy
اگه
جنيه
دوز
يبرد
われ
##عمة
##dour
##madi
##حول
المدة
ماسمع
##arab
العض
السروال
انتى
تقار
تقابل
بنية
park
بتم
عشنا
وقتو
رايو
ماننس
##طباق
lyon
جايحة
preuve
الاعظم
##فكرو
صغري
مينفعش
فخار
close
ارجوكم
😂😂😂😂😂😂😂😂😂😂
سخون
organi
متواضع
الجمعية
marocain
7at
rel
zhar
خـ
رهي
سايق
کنه
जा
##يتي
##هلي
##ثرو
##💦💦
##ener
الجهات
اوصل
للتح
##لبن
ويوفق
تحاسب
##بعه
احط
meg
استقبل
##سنان
ناسها
coin
orange
وطيب
##aleh
لغات
صورت
ويبعد
justi
معرفش
700
soum
ثي
طلاق
هااا
😭💔
##بقي
المالي
المواهب
بالشفاء
##حمس
الفنية
alhan
النصف
يتخذ
moha
الانجليزي
summ
بشع
الثوري
doge
##ouloud
ستجد
وكف
خاطية
likom
محدود
نوعية
سيبقى
source
zaman
مالقيتش
billel
الاوروبية
5g
69
wha
صويلح
##طوك
##ثاء
##adan
السكان
اخته
ويفرج
بيلعب
mobil
##waz
abon
سينا
المسلمة
cost
##ـــــــ
يرزقو
ونتمنى
hahahahahahaha
dayra
yetne
zinou
عقولنا
favor
النضام
عرشه
dn
sini
zd
حثالة
ستيل
شربت
مكي
کل
##fara
##jadi
##زداد
##gho
##جوا
واا
##ahan
السير
الشاشة
##هوما
##cias
يسته
forward
nok
بوراس
حسابها
مزد
الموعد
التجربة
يغيروا
فالجنة
قاطع
jdida
سعادتي
وخرجت
الجمعه
kenapa
##hafid
hone
tiba
ازالة
رفيقي
🤭🤭
##5er
الحيا
القل
القش
الخش
sach
##rip
beb
liver
تفوق
##saf
##assim
meni
رحمته
مارح
نظرية
##وايز
شبابنا
فضله
corps
aamiin
تاخير
tylko
خممت
##iiiiiiiiiiiiiiii
tidur
صنعت
اليابان
tajima
الانقلاب
المقاطعة
alam
fy
yss
باء
جايا
رديت
سلامي
مهو
しみ
##nen
##bur
##طاب
##ﹻﹻ
##aro
##alla
##روية
##liw
اخوتنا
الوث
احش
mezi
الزبل
تتابع
تشرف
تشكر
وعط
لكنني
يمدو
ينكر
مخالف
يعرفوا
nasro
البراني
يعملون
dork
ecri
امتحانات
trucs
ممثلين
الذكرى
1st
ei
len
øu
اراء
جبين
دقيق
سپ
فوك
كاره
يغيض
##hmo
##len
##دولة
المعم
##alha
##itas
ياق
السند
الدر
القوى
الفرس
chhal
chwi
هوية
اعصاب
ومرة
اتهم
موب
aber
ولعب
مليلة
تفصل
مرغ
تجرح
وخليك
عطيت
##ither
جدها
198
الشرطي
ارضية
يالطيف
skin
scre
##🔥🔥🔥🔥
leave
شفاءا
heureux
sangat
societe
بفارغ
assi
kadi
liste
says
طرط
には
##wya
##tari
##ثيين
##गा
##ـف
المشي
ماحب
والسي
القناعة
ميكي
يخلق
hadok
##ونيك
نشف
##gerie
عنديش
siham
قلته
empe
المخزن
galbi
فكري
خلقتني
التحية
واليمن
كلماته
قعدة
الفايس
between
rassek
lgito
invite
yanis
لقبايل
هنييا
motivation
3ziz
aider
loud
mung
عوام
##not
##cd
##cil
##ﺎﻧ
##anti
والاش
والتم
##alia
بالما
بالكو
الترشح
الفني
##كيو
##كينا
##عوات
نشهد
##ciation
خاصك
احبها
والعرب
المحسنين
والسنة
لجماعة
بالنسبه
familles
واكبر
تبرع
الفنانين
bnadm
49
lali
ازم
تضح
عفايس
जय
##شفي
##تصفير
##ﺪﻳ
##ハン
##ttent
بالاخ
device
##نتهي
اوري
متعود
متفاهم
متخافش
chra
##maz
يتنفس
الطالبة
##aaf
ily
blue
التيليفون
لازمك
تكثر
يديرلك
تطل
قتلي
المعارض
براسك
والعراق
مزبلة
##sksk
كارت
عصام
ماعندها
نوعا
bta3
الخبرة
parceque
ايجابي
تاوعنا
استطعت
9oli
تفيد
تطوير
سوت
لاتي
وخلص
🤷🏻
##pri
##نصيحة
##خرية
##🧐🧐
##ابور
##rado
الجمي
الشقيقة
##ربى
البرج
lepas
اكو
##اطع
بلاما
تتخيل
تخرب
##wach
قدرات
تشرح
##ساند
تنقل
مالڨري
الرياسة
منافقين
##ddd
سببا
برنوس
jajaja
ﺍﻟﺮ
الفتنه
المبادرة
redouane
صادقة
الاعتبار
connait
نيمار
2h
bord
cart
sos
yna
ارف
بمر
تبل
دقي
شل
その
🙃🙃
##بله
##हा
##ابعه
##ستنا
##alk
وافتخر
الجنان
اخره
##لبا
ويص
متد
##yacine
ومهما
تتست
##اريين
تخرط
اتخيل
وعاف
taille
prends
يابس
drapeau
ناضت
المزور
srx
تبدلت
mddr
اتخاذ
iربي
pake
w9
١٨
なに
🤷♂
##ہي
##hia
##طاد
##та
##😬😬
منى
المسم
بالاج
##lee
الكلية
ha9
lien
اصفر
##cio
marty
accept
يسرقو
الرسايل
والقلب
الحميد
##ってる
اعدام
تفرجت
sense
بيروت
تعطيني
يوكد
84
lmou
nid
tte
tla3
غاد
📱تصفير
##باسم
##jri
##nement
##وقة
##cik
##نانة
##ほんと
منظر
انهار
##ايبي
الافعال
غيرنا
##وولين
##احات
mohammad
عملا
hag
يسهلك
نحل
اجت
marra
stade
لعجوز
##زلتي
##dok
نفذ
احتيا
ورث
جابها
achete
ماعندهمش
وجوهكم
صنعاء
سحورك
77
fk
sø
ديه
ودر
える
##مزية
##gir
##34
##7e
##му
##いて
##ادث
التليفون
##نتظر
الكرش
##imaa
مشرف
##وكاو
ومغ
يتدخل
مساج
مساحة
##هيش
##اولاد
الطاير
lihom
افغان
ولدت
تغلق
تجارة
##مانية
##عندو
مكانها
بصدق
مزالني
هدايا
ازرق
تعرفه
نشوفهم
vraie
ghaleb
بخاطر
بالحياة
حياه
الميزيرية
##🙂🙂🙂🙂
تقليد
جورج
ستوري
kareem
nc
wid
ذري
رفق
لجل
نري
هاتي
ڨالو
वि
まて
##باك
##قيه
##ڨلي
والاف
واصب
##ravo
الجنسي
الشلف
الباجة
laid
وانشاء
يحلم
الزه
الطبية
تشاهد
tala
لبلاصة
مستمرة
##umu
##فقراء
حمودة
hbiba
presque
القبول
واقفين
الحرارة
تعترف
waktu
3arf
فحص
طايحين
مروان
زبدة
اطلاقا
الفاتحة
rezeki
bizarre
gibi
mni
جليل
خرو
قرية
😥😥😥
##شهد
##rik
##pus
##زش
المادي
##ابس
لابي
ليد
التالق
##stes
الفحص
الكفاء
الصايم
sao
ايديكم
ومه
elly
اسس
وجيت
##antu
الخيرات
زوجتك
ye3
lupa
مغرب
وطلب
##uku
takh
##rrrrr
##صيتي
رابطة
حاسبة
لقيتهم
يحفضهم
المكسيك
court
هدرتك
يكتبو
voulais
aceh
الارجنتين
1m
7d
92
cz
raa
جياحة
حامي
صاحي
طلوع
لتكون
राम
🥴🥴
##zad
##ندم
##られ
##नी
##يرمو
ماهمش
الحف
##reh
##عبير
##tier
تعادل
اشرح
لقات
sois
ارحل
ادعوا
يستنى
pole
##pool
habibi
##العام
ههههي
ماماك
جبتو
اقتصادية
memang
واصلا
السباق
insulter
##لوزيتش
iال
roo
خميس
صنف
فرش
##ped
##39
##ﺘﻚ
##ونكم
الحرة
بالار
##حمه
الشرك
البرامج
متفق
النوا
##بلوم
نتحدث
##اولا
##dais
الامكانيات
khrej
fiere
تفاعل
nag
baca
يدورو
بهال
مبدع
اسمحيلي
##فوات
تعرفها
بغيتو
berb
daro
ﺍﻟﺒ
حلويات
وارد
خصني
tahya
غلطان
agree
يشافيهم
honest
problemes
الاقتصادي
##さんの
rym
لتحقيق
ftorkoum
partager
kub
tchof
بزي
بفيروس
ضوء
فظ
##git
##🏃♂
##￣￣
الارب
##anie
المنه
##hai
والشي
الجالية
##عدم
الكوره
للحم
##منع
##لامه
##لترا
وجاب
##daoui
بدعم
aust
يقولنا
march
##umer
heures
عاملة
##راريم
الاجنبية
تخرجت
فوتو
انسحب
تزعل
المبادي
يخافون
nawel
السميد
پیش
loub
نربي
##موس
##たから
##もう
##ły
##フレ
##ﻨﻲ
بالمر
safa
ched
ايجاد
este
ديوث
وعادي
الغذايية
الثامنة
بليس
حبسو
##عنی
##cked
mili
كلامها
lyouma
شوفت
لاعبي
fln
تجيبو
كبرنا
يخلصو
يخافو
blida
يعملها
للمسلمين
oblige
الكاميرا
ماعدا
fs
ثالثة
قلهم
نادر
しか
🤷🏻♀
##لقد
##رڨ
##وزي
##زد
الرض
##انق
##ليح
##يادين
##raine
الوصل
tofla
بسهولة
استرجاع
yala
يشعل
بنشر
kht
khater
يقولهم
مجيد
لعسلوج
manch
لتف
##load
pray
mrc
authorroutine
شايفين
ربحنا
يفرحكم
يعطيني
facil
يحميك
##💚💚💚💚
السفارة
بالجمرة
اوقروت
wli
تطبخ
جيتك
غادر
ولهم
وايل
١٧
##jed
بالديم
##اشا
##hey
##قيع
الوان
وتض
chante
لمت
past
لوحدة
##اريكان
تنف
الراية
kaz
fruit
pron
نعشق
##issant
الظالم
ليكيب
##نبلة
ولدها
لشهب
##🇩🇿🇩🇿🇩🇿
presse
##فيهش
كومنت
بوفاريك
others
bismillah
came
mkh
كومي
للات
لرييس
يفي
##هرو
##جيني
##ーシ
العظيمة
##reche
بالسي
##نيها
الشروط
للانت
الوات
eni
بيف
##ووون
بسمة
اللتي
الذى
##الحين
##alich
للمواطن
##ziza
ازد
الابرياء
karo
مرتب
تاثر
كامله
يابنت
7ala
صبرك
وضعت
koulchi
travaille
crazy
ورجعت
changement
مشاعرك
те
تک
ساند
قناع
يبار
みんな
##تلها
##ضرك
##سيات
البلوك
الدماء
sahab
##طيل
الليبي
احلامي
اساء
yaaa
livre
الامه
##wai
تشاء
كيفه
bacha
مايدير
##اهمة
##ريبوندي
##كوين
سماي
short
صفحتي
gagner
قولنا
reply
##moudi
##fois
kalb
melhor
ماعنده
ماعندهاش
bilel
bikin
الفاسدة
توجع
تصبحون
ورييس
##playing
7o
7ar
cek
gini
waa
قابلة
もう
ﻗﺎﻟ
##غيت
##wha
##صاحب
##ـق
##ᅳᆷ
##🇺🇸
البراءة
ويل
##هداينا
لمرة
haj
abid
نفسكم
لكلاب
duit
##fih
propa
هكداك
علمتني
بمعدل
بغات
مغلو
كاشي
brune
نطاق
sarra
وديما
بقينا
sirine
برشلونه
السعاده
الخبيث
noun
تراك
صون
ملم
مهر
مضي
مبعث
ناع
ورف
کرونا
##اات
##اصل
##يية
##fen
##ظمي
##до
الملوك
السين
تعوض
اوس
لوخر
بعشر
بركاونا
ادرى
المنحة
pergi
ارحمهم
خاطيك
zoua
expression
lazm
hidup
lhadra
kch
ore
بوسع
زار
غادة
لسبب
##سق
##kay
##bc
##ريتش
معسكر
الشوك
فالز
هيج
##ghan
بشه
المسرح
loi
نعود
رحمهم
المستضعفين
emang
gaz
كاشما
using
صحابی
noureddine
hyati
وعندها
احمق
كومبلي
deuxieme
zakka
tombe
انجازات
mchit
يتزوجو
deserving
officiel
utilise
gaya
تزوير
زغماتي
شارب
مذكر
وہ
يفقه
##bghi
##🌚🌚
الــ
فيل
منصة
معارضة
##akak
##داول
##وتا
تقط
pardon
وقلوب
boumed
strate
bell
##اضى
ext
ولادنا
دوره
ناسي
##ذكرك
##شتغل
قوليلو
mecs
يوفقو
multi
gratuit
المركزي
مستغانم
47
kari
لبحر
نريح
めて
##ctiv
##دال
##ذبة
##🏼♂
##يروش
المخلص
##esa
العتي
##chek
الديني
اخرتها
متعرف
غيرت
تحرر
وشحال
تقري
limit
تصدر
mark
##بتنا
الهوا
expr
extra
trib
الشيوخ
soutien
الضربة
حابس
فانها
خداع
dahk
claire
remar
ملقيت
mundo
oppos
هاهو
موفقة
ecrit
ema
event
iyi
kada
ooo
ykhali
ابل
وقدر
🥺❤
##يلة
##h30
##moun
فيظ
##راخ
والاه
##alim
##amb
الشوف
ويستر
##عملوا
يحرك
لمصر
استوعب
##يييين
تبسة
lilia
بداي
نحيت
مثواهم
تسوق
كونوا
##eeh
route
الاصلي
hahahahah
attra
سلبية
ptdddd
3andha
3andhom
الاعلامية
يرجى
messaoud
كسرت
t7eb
اظهار
للاحرار
باا
شبكة
かった
##سلهم
##eurs
##uel
##put
##نهم
##يريا
##ارتي
المرو
المعرفة
##ستی
وابي
mae
الحذر
##liha
##ااام
الخواطر
مشى
##اليتي
نتق
وشوية
ماتغامرش
وينتا
trom
##فلون
pages
يحبني
##ateurs
houari
##ları
فرحات
working
diro
science
العقود
تلعبها
##merci
rodri
مبسوط
جدوى
العاطفة
المفضلة
ekh
lja
ppl
خعرج
داشت
شامل
یعنی
❤😍
😆😆😆
##umi
##cti
##فوني
##فوه
العود
العامل
واثق
##abo
##وسات
##ــر
الانثى
خيرلك
وحيدة
##resh
منيح
##mmm
يعيشون
sincer
بیش
masala
نكتة
جسمك
hamdoullah
لايمكن
لاسباب
98
kane
wet
y2
ايرين
بہ
ساج
غبية
قولهم
##مينة
##rime
مننس
##ابون
العافيه
الجمل
السريع
##قيس
متج
##teh
ومج
ومداد
##عيك
lesbi
hair
##uthi
faim
##night
hoje
عطيته
bzzf
خالتك
نيوز
صاروخ
سلمي
بخش
خدمتهم
scen
سالفه
جمهوری
hmdlh
سوداء
neymar
stupid
41
aha
gaa
qq
rendre
ضبط
نعل
نامن
ووص
چند
एक
##دس
##خوا
##😶😶
والذ
بالمد
defa
هيجب
تتحقق
اتحد
تساوي
تنظيف
room
روحكم
شخصيه
##vait
بصمت
##yef
طيبه
##louch
ملاير
صوتها
fatma
##nalil
جيشنا
سطح
مصالحهم
ياجماعة
استقالة
exactly
تيمية
بالظبط
mii
tqt
زميل
شهادات
وعمر
##تق
##loul
##ois
##wy
##7ni
##не
##ロー
##ايفة
والاط
mamat
التقدم
##abou
يعاير
saint
##طيحش
##ssen
فالصح
mej
##غلطو
##جبات
تسمي
ساعتها
تطيب
المعركة
فلاش
فشلت
معندك
غالطين
ydirou
tgol
اعمى
##ولوجية
dehors
ck
iftar
jis
kib
تومن
رقص
صبا
عروسة
هبة
په
##باد
##fa3
##7am
##خبر
المادية
##ماير
madir
##فيسبوك
##ates
##tia
بيطلع
لكننا
ارلي
المسا
اغسل
عايلات
iman
المهمة
prec
سلمت
ويرفع
choque
صورتك
phir
يستركم
فكرني
مقدمة
zwina
عجوزة
chocolat
والمغفرة
72
iki
lgha
صعوبة
عرو
مرجع
وطي
##شته
##علاب
##زلو
##صى
##ـو
##ڨرة
##کار
##ﻠﻴ
##الال
المكر
والتش
العاش
##ades
devenu
##akom
البلو
##idja
ويعوض
##rod
لمشكل
ambi
خيرها
افوز
نشارك
تسع
belli
مكياج
ako
ترون
حومتي
رياسة
دورات
finally
رزقه
اوربا
coran
##ثيقة
madani
شاور
تبرر
الداخلي
الشمالية
المظلومين
اوباما
رخصة
congratulations
gm
lwah
تال
ترفد
حذف
صابر
نديها
##طعم
##🇵🇸
##هاذا
انب
##رياض
ماست
##mic
ليلى
علية
##توحش
##iran
##حيها
moze
صحابات
##tai
تتحكم
لوفي
تخم
موثر
اجن
بشهر
الارواح
##حتاجين
mila
##راقه
jaz
ايامات
ارضها
hhhhhhhhhhhhhhhhhhhhhhhhh
nowplaying
للطبيب
girls
للفريق
تندب
وديري
ppm
ancien
اهديتك
cuisine
العبودية
iwa
payer
ثوب
شتا
غايا
فريت
##pis
##ـس
##ـح
##っち
##يااا
العاقبة
##islam
الحاضر
اوسع
الصنا
الصوالح
##دادي
savent
indo
reali
hacha
##ينيات
##تهاد
فلس
خطبة
##قاتل
بالمية
application
طياب
للشباب
##🤔🤔🤔
لكانت
يهمك
الخليفي
الكمامة
wanted
وسمو
ماعرفتش
##00000000
جلط
صانع
عزة
نقطع
هتش
😢💔
##hs
##cji
##ᆸ니
##ﻐﻴﺮ
##انسية
فيكي
المولودية
العروبة
بالعمل
راشد
##ربك
اخوه
##ourouk
##هوبة
##يييه
ameur
وعافه
wa9ila
الغمة
نحفظ
ينك
بقوله
##بابا
لهاذ
بغاو
الانتاج
جلسة
agar
وياه
طالعة
فمها
لسانه
خخخخخخخ
##😡😡😡😡
antasna
يفعله
ﻋﻠﻴ
الذاكرة
الضحايا
85
sant
عثيمين
##يون
##zk
معيش
الترم
وتذكر
chib
وانس
ابغى
يتالم
يتذكر
ونف
amara
paroles
arb
بشير
مستشار
يعنيك
مايع
##ically
##ayern
مرضانا
porque
started
النشيد
جزيلا
bari
bada
bank
evid
gri
z3ma
بماء
طفرت
عامي
##ribi
##دايية
##حاسب
##ру
##يربي
##راهيمي
بالسر
الجزاى
##orde
الدوام
للبحر
الصراع
##رتم
شوط
اتصال
تنب
roi
##ows
waldik
تجديد
وخلا
mens
الهنا
##سطونس
ahlam
عاشق
والعايلة
نطقت
قالتلها
امرهم
##جزات
هتلاقي
القبض
الاوراق
المسلحة
الواسع
العدس
مخلوع
الحضور
ychouf
الحادثة
argument
kre
lwalid
ose
weli
بتكلم
ذرار
مراهم
ورك
🙏❤
##غض
##تقول
##hli
##cience
##نعت
##ذال
##キャ
##ليكا
المزع
##ador
##lir
القصر
اود
الفراش
الخطة
##naha
اسقط
وشفت
##دويتش
##ta7
هاهاهاهاها
بدولة
khud
محامي
tuer
نحبهم
تدع
pep
ahmad
الضمان
المستقب
جيوب
اكتشف
hotel
ضميرك
يعافيك
عالاقل
bard
ese
fab
nkoun
ywa
حفض
خيم
سمان
نقدرش
ﺃﻥ
##gos
##イン
الحركي
بالشر
##فينا
##سينا
chft
##new
##ووول
ouss
##ييك
بدال
##مده
##ffa
ينطبق
##cif
عايلته
علمية
##جدد
matzid
حمبوك
تركية
##dust
واترك
حكمه
وليدها
ظروفه
معجزة
hmar
mini
uri
اراك
تانيه
لسة
##اولو
##😂🤣
##نقع
##05
##gak
##けて
الپ
##راسي
العضيم
الحياء
##ahli
##عدالة
امريكية
وتقدير
enle
ومرت
مسام
اكشن
mood
ماتع
تخف
تشوك
##غلال
تسجل
##fiha
##لالات
وقتل
matkha
البيس
##yeux
قدامو
##شوخة
يديهم
تزوجو
وضد
phrase
eyes
طالعين
حذاري
ماعلاباليش
يقويك
طونوبيل
الكهف
##مسخرو
امریکا
err
late
ode
что
это
ابيه
حلت
كوس
مذل
##cor
##حهم
##gur
##भी
##😈😈
الاسنان
وادا
##rass
##asma
##maissa
وبط
three
يقصف
سيناء
##سانية
تصويت
logique
خطيب
souvenir
تطبي
##واليس
هذوا
appro
tahder
الاقارب
وضعية
ويغفرلها
deteste
ازيد
بطولات
سرب
شی
نلوم
هديه
ہی
##sm
##ذنين
##ﺎﻋ
المود
معريفة
الحفاظ
بالغلط
dekat
الشجاعة
التفاعل
فالل
تقصير
وبقيت
بنى
وعاود
khd
محلي
ادرك
نصبر
شخصيتك
lool
المستقيم
مواق
يفهمني
موسوس
كاملا
hhhhhhhhhhhhh
3aychin
واغلب
المرتبة
instant
statut
شهداينا
النوايا
##ستاهلش
qlq
شنقريحة
nda
ow
tsa
ula
جبار
حلمك
ذمة
طق
نمر
##بطو
##😂💔
##vet
الالعاب
ماديا
andi
ياط
##liquer
savais
##فرغ
يخلو
نشيد
الصحرا
bera
##الوقت
دخلوا
bash
واخد
لشهداينا
interess
صحباتي
chouhada
وفقك
المظاهرات
تمسخير
republique
whatsapp
ett
بفعل
تبلغ
غريبه
كوا
محيط
ووق
ودو
##یده
##والك
##uli
##rid
##98
##gel
##يرال
انمي
##ديف
مازلنا
##اهره
اخفاء
##كلها
يتجاوز
##مرحبا
بزااااا
الهداف
وكالة
يعرفه
feha
##قولهم
قاتلهم
zey
tahu
المطعم
##ميمج
والخوف
الستاتي
تربحو
النيل
covid19
##entiel
u0001f972
##طراباج
الوضوء
yetnehaw
2eme
5000
data
hra
squ
ضهر
هش
##رمي
##شري
##شاو
##طرب
##حاول
##جميع
الداع
القذافي
الخطر
اخضر
lettre
##منين
اليقين
لمين
عملها
##نوية
الزع
uns
بادي
##wala
عشا
##ffer
baat
حقكم
مكس
3labali
الرياسية
rahmani
لترك
miser
الابناء
بوخ
الاجواء
طلعوا
brand
basket
##zzz
اللايف
dayr
shay
اقترح
mta3
chercher
المتوسطة
اخواتي
احلامك
americ
التركيز
community
hopital
علاقتك
الفاشل
تتستت
t9aw
yban
تبرد
لحك
ملو
نواب
يعبد
##وولة
##ruk
##ياطة
بالدم
ياقدوس
للذ
متفهم
فالما
meziane
ميمي
##رقوا
تتخلط
وعلا
abuse
يقسم
baad
رايهم
jui
juz
##يكتي
حالتك
##دتكم
ليكور
zeh
المقربين
نلقاها
صحبتك
##ारी
patri
الاعتذار
ونعاود
مراكز
discours
انترنت
drah
py
tlm
при
تاف
جيم
👏🏻
##رقت
##علب
##dal
##ﻠﻮ
##يرية
التافهة
اخري
ويشوف
chere
مشجع
تحوسو
moder
reh
وجدو
فرنك
race
bouh
tex
maram
##سرع
local
وكامل
يحبوا
rigole
fev
mask
اعتراف
لدعم
finale
sayi
بروحي
الاداء
سالمة
alex
حاكمين
يصرح
راقدين
مخرجا
##اشقجي
وجوههم
ممارسة
فيلوتشي
dkh
jana
nest
wiss
جوف
حظي
ورض
우
##wana
منال
انذاك
عنصري
بالغرب
##فيز
##اسلام
القلم
##حيش
بيست
ونبينا
model
ماتعرفش
اشارك
يقومون
وحين
بكورونا
نصب
نديرلك
resta
صفقة
ngoul
العراقية
##ggest
##emain
باتم
كوفيد
excl
surement
مربع
programme
ويجعلو
ايييه
هيجبله
2l
cari
t5
tlem
ви
بخص
جرى
خاد
عافي
غوارديولا
لتك
يجعله
##رعة
##dzi
##3ay
##なかった
##ょっと
المره
##edy
ماخذ
##ttra
عنتر
##داسي
took
movie
وبابا
parles
اجم
يقولولو
rob
ادركت
quitte
مكانة
haroun
houa
وراحت
2004
fouzi
tgoul
يبيعو
كريستيانو
##ofjoy
استقرار
كرامتك
lakhdar
##ように
مواليد
##where
seedofjoy
##ᆸ니다
بصل
تلاميذ
جيني
شىء
غار
مراقبة
##nant
##وراء
##िव
العميل
التخلف
امورك
كاني
يعقل
sav
##رتني
##جيج
##dial
##فتة
##رضه
##bala
يمرض
ارسال
##درالية
للمقابلة
حالهم
##dole
احباب
terima
صاحبنا
السلعة
hero
اكلت
عجرم
يضمن
##حححح
midou
update
rkh
s7
ترضي
خساير
زياده
قاسي
كوره
لطالما
نة
يتيم
٥٠
ﺳﻴ
##شاب
##عامل
##قني
##3ed
##ڨول
والاهم
راء
quarti
##ااال
##imana
regu
عملة
ميعرف
unc
تشويه
اصط
sole
##رميد
يقولولها
وصبر
شعرة
وزيرة
المحلي
رحتي
نعرفك
بريء
المرور
تعتمد
عيطلي
langua
یکی
dawla
##توكول
السموات
3em
mie
soo
ختها
طيش
عهدة
عراريم
فشي
가
##اام
##pun
المزي
والخط
معاني
##نيتك
##assa
التغير
للخير
الصي
algu
صحتي
##rii
beat
وسن
تصحيح
tez
forme
الاستف
الاباء
makay
##larbi
interview
سامط
لطفك
priv
ارتاح
##ععع
وادعي
francaise
خافو
nroho
الغياب
الجرايم
ymout
solidar
والسرور
aaaa
skh
خضرة
سويس
قبح
مديت
نتك
يلع
##dim
##hon
##طفك
##gem
##5i
##🤨🤨
المالك
البين
الكهل
بيجي
ouar
نتخيل
moga
هاها
وخذ
لتق
عطاني
##ftah
مهزلة
نيتي
avan
قاتلها
warda
artiste
ويقلك
فيروز
##ていた
فهاذ
ibtissem
reconna
7sa
teng
ذراع
رخيص
مياه
هسه
दश
##db
##nii
##tna
##くちゃ
##それ
##का
والدينا
##ربوا
##حتا
الخن
متغ
##اليف
inqui
عملوا
الزوار
الغبي
soi
sobre
##ازی
يفوق
##سمعش
##قصد
##😁😁😁😁
كثرو
tsema
سوالف
##شتاق
الممكن
الاخيره
##ehy
tenho
##ثقافة
نفهمو
يمدلك
رفقة
messaoudi
يسبو
##حاولة
victoire
نايمين
الخمسة
سحوركم
wilaya
confirme
شهاده
b9a
gk
mca
rt
smo
von
اده
خبار
دامت
ذكره
يطرح
##fch
##صيل
##xic
##みたい
المقولة
##راغ
بالاف
##asser
lew
ويفر
##افو
bea
##قلنا
بتد
##meur
##رامب
bai
اقصر
nig
##اذة
لحوايج
وقتاه
احدث
علمت
jack
perle
prefer
ntf
الاتفاق
pleurer
كرشي
الاختلاف
n3aw
difficile
رهج
قمجوج
کنید
البحار
الجنوبي
بلايص
bzef
d3
tut
ازال
بک
شتي
##اثير
##تبع
##hil
##lis
##oti
##ろう
##واجد
##arat
##mii
##ومنتار
##سمه
الوسخ
مسيرات
##وقل
لمست
وعرف
وعافيه
خيرو
abb
مليية
محفو
##سنال
كبش
u200c
prou
المحروقات
vio
وكانك
دونك
العملة
خيال
بالقران
يابنتي
المكتوب
sakit
يعافيها
jugni
46
хо
سالك
ناخذ
وعمل
ﻣﺘ
##ليكم
##ليشيات
##هاوش
##ann
المقت
المصر
وشخص
chaab
niya
مقنع
##فوخ
likes
##ولكش
emb
عميقة
insult
accom
عاجبك
سهلا
current
chelsea
##ﷺﷺﷺﷺﷺﷺﷺﷺﷺﷺﷺﷺﷺﷺﷺﷺﷺﷺﷺﷺﷺﷺﷺﷺﷺﷺﷺﷺﷺﷺﷺﷺ
3lech
b1
badi
oy
rina
sell
اﻷ
ذم
شهي
غبري
مغير
نـ
ياي
##يهم
##jad
##los
##vr
##دود
##lawi
##itely
##amu
البوس
الكفر
اخير
يساوي
##angi
##sey
وسوريا
robb
##cially
##owe
manha
والموت
تطبيع
تعرفت
وفيك
##ممكن
دينهم
يخدموا
نكبر
الرايعة
مباركا
بالشعب
y3aw
يضربو
اجتماعي
perez
constru
##🏃🏃🏃🏃
انحاء
##🇸🇦🇸🇦
الاشتراك
fed
hours
بامر
تود
جول
سيدة
فواحد
نرك
##رغم
##lot
المدية
مابق
ليون
madi
ياف
##اءات
##00m
كانهم
متخلف
متنساش
inste
ابوها
ومم
الزايدة
##oush
##uler
وقاع
تسويه
بكامل
الثلاثة
اللولة
biya
polic
##2019
ﺍﻟﺸ
خيتي
spir
syc
حاسس
badna
##ظيفه
explo
القطاعات
##راعنة
يكفيك
allais
شاركت
waiting
repondre
ريفكا
cree
lut
بفتح
تون
جندي
مهام
يتوب
يوافق
ﺍﻷ
👇👇👇
😉😉😉
##łem
##कष
##보
##ارهم
والجيش
الجوال
السام
##سمت
chouk
##ikoum
##فترة
##usan
الانمي
chai
محاولات
kiya
benti
مكانتك
##je3
touati
كثيره
بالتالي
superleague
sath
الهادي
كاتبة
sa7bi
تحياتنا
افكارك
البرازيل
الزواولة
##ろしくお
hch
عزا
ووض
وولا
٢٨
🥺💔
##qq
ليهو
matt
##ومبر
بالهم
##ميسي
##قيك
##منية
algi
متخلي
وتقدر
saida
##فسار
ومام
يتحم
فالان
تخير
##زيق
marse
لحية
يطيبو
مالغري
علمه
وكاس
نعطيه
تسته
micha
دوزيام
ولكنها
عمرنا
الموظفين
ze3ma
البارسا
ibu
##غلطش
phil
tabou
nabila
langsung
بالذرية
ولقيت
months
##gharba
tfakart
##work
almost
الميساج
liverpool
cine
cic
خانة
طهورا
ﻳﺎ
##شهر
##kara
##sun
##درو
##gb
##🤡🤡
##الام
##ارته
والعب
massa
alone
ايديهم
##جينا
faud
nef
توضيح
كونو
cheikh
المتط
الفرقة
اعتق
##صيام
والدولة
180
تناقش
تضامن
##حياك
البدايه
يعيطلي
سجناء
امتى
ماقلت
independance
نلتقي
سانتخب
raconte
ران
فدي
لذة
##dl
##ستاني
البور
الفخ
الخصم
اليتيم
فاللي
##dien
تتهم
يوميات
اصابع
وحدنا
وسام
محلات
تفوز
يجتمع
اقعدي
##متهم
باباكم
مزالها
يفضح
فهمتي
##قبله
طيور
##خخخخخ
التعريف
صلح
صحبتها
جعلها
للدنيا
الصالحات
refle
invest
queria
madjid
micro
##🏃♀🏃♀
conditions
dana
yester
لبيت
وصحاب
##یات
##كلي
##فوك
##اتلو
##enour
matter
الشوون
الفرفارة
quran
##abder
الوزن
chris
##لتكم
تحكو
ونرجع
اسفه
اسابيع
عمق
الطغاة
##ــل
##وعه
الاموات
قدها
الغلا
وقولي
ديرلنا
forte
##ووووووو
kayak
jap
تخرجو
يرزقني
##ريكة
الاصلية
وياخذ
يرجعوا
الخطبة
##ını
ويدخل
djazair
populaire
instead
2nd
59
mise
yla
ybarek
بضرب
رصيد
زلت
ساس
فستان
قضي
يلهم
##علا
##ضغط
##صيب
##😣😣
anda
العري
الجارية
deco
الشري
الكلمه
الخطوط
##ids
chien
##اليق
نتغ
لماما
dign
ربى
نشرح
تسليم
تسعى
وليدو
bache
kira
hihi
وكنا
لتج
وزنه
الاستر
شعبة
makla
واعرف
المجموع
build
salmi
tempo
خيط
مولانا
casser
dirou
وهادي
میکن
تغريدات
siapa
اللبناني
murder
official
louies
diman
gib
اک
یاد
😜😜
##dom
##cons
##py
##ظاهرين
##serve
##oulek
##امله
العشرين
الحافلة
السلة
##orme
اخدمي
##ويك
##eks
بيعمل
ابان
صحن
##ries
nei
تخطي
بنغ
موامرة
حيلة
nac
ينه
يدكم
duk
تغطي
الذكاء
والمشكل
rahman
تلقاو
الراحل
البيان
vez
عرفته
يغطي
##feh
اثبات
الاصوات
nouvel
احتراما
نسيم
سينت
trig
السوريين
フロク
7yat
jok
все
تني
توه
شنا
طه
ملب
かあ
##تمة
##wit
##ختار
##はい
##ाई
##선
انهيار
ماقبل
الاحمق
##alid
العقوبة
##ادف
الفاهم
##etha
##لقب
الوغ
تحديد
ouch
##وليه
able
khatra
توزيع
ارتي
خليتو
شكو
menang
souvent
الراقي
لخرا
اثق
باعو
##فاقه
معتقد
تحسبن
favorite
النظرة
يحميها
absolut
الوليمة
tic
مكل
پای
##gor
##ちら
##やつ
##↗↗
الراق
##يدين
##اكبر
alt
بيج
يرحمكم
بكاء
يستفيد
stru
ديرلي
jud
الاستقرار
pagi
وفاء
goal
ايامك
syn
dyna
tonight
يابني
مبارة
اولادنا
affich
zako
فاعل
صيامكم
channel
كرشو
marocains
##vices
الدستورية
لويزة
feliz
eri
evi
nord
sit
tort
حولة
زغ
كويتي
يفسد
나
ﻟﻠ
ﻭﻣ
##تز
##tel
##نعرف
##gres
##ثري
##راهي
##laha
عليش
initi
innalil
تحضير
عملو
##جعلهم
##نوعة
استدعاء
تقسيم
##جلد
chahi
##صرنا
ishak
soal
يجاز
##ريدات
immedi
##adila
نخبة
##ذبو
habitude
مفكر
طبخ
جزيرة
2008
مضم
lkahla
الممثلين
mrid
jiji
الاكتياب
فاسدة
الموجة
degagent
doivent
تعازينا
toul
но
جنسية
طاري
قربت
مميزة
##علو
##نمر
##حسن
##りました
والبر
والرجال
mains
البنة
##قدو
القومي
وتاع
هواي
ايلي
اباء
حته
هيهات
وجاء
مويه
نحلم
wale
مرعب
adik
المعاناة
المحاض
ينتخب
يلعبها
interpre
spr
جبان
##یمین
حضن
طاولة
عصابات
توافق
القطط
tanya
خسرنا
respon
جواز
mansouri
الكترونية
7ada
atte
fhad
gaw
غفل
هالب
##سلك
##non
##ping
##ضعة
##ليحة
##essa
الاقدار
لاهي
##يتد
##aker
##اجا
##وعين
وعش
##سانك
تنكر
لبناء
نسلك
stuff
bias
مصنع
ومنه
ado
تستنا
hora
جامعات
ghaya
نستودعك
john
ma3lab
بجميع
1500
فوزي
rayha
zizou
احمودة
profil
##ضباط
الميز
maniere
صرالي
ينادي
حلمت
miral
puisque
##abilite
##████
وطلعت
details
لحباب
الحشمة
fall
ged
kte
##powi
##ᅧᆼᄉ
المرج
##ised
معامن
الفاح
الخلود
النسيان
فالوقت
##اوري
yach
bein
وباب
الغنا
##اتيجية
اجراءات
tava
wear
للموت
عطاء
بصي
apr
bola
المستعمر
الناحية
##وابين
صفوف
حلفت
الموقت
شهري
اعداد
##😘😘😘
السوداني
صرالها
تردد
muslims
boutef
تذكري
جوجل
arrest
ويحسسك
ea
ftou
oli
paka
sene
سراحه
نوك
👍🏼
😂😁
##عقل
##حبيت
##26
##구
##ايدي
والمر
##فيلم
deter
الفاضي
الخاتم
الوصف
هاز
بايرن
قدره
وسيد
يبالي
بشهادة
dog
بمليون
سباق
النايب
نعمتك
ندعو
prepare
سيدهم
kolo
وامريكا
huwa
attends
worth
ساكتة
حشوة
ملفات
هبطت
صالحي
resultat
fierte
government
1h
9aw
colo
hena
wm
توني
ترس
ستش
سماء
سلوك
##pin
##ذى
##ڨا
##✋✋
##ouzi
##امنا
والفساد
deal
ويقدر
##لتر
ابنة
ونجي
##حكاي
الزطلة
##chemi
توري
تسدد
welah
##سنجر
الهج
حبيتك
وزع
تعبانه
المصايب
بارت
drar
##ذكرو
bayen
nassima
sidali
##اغية
سجلت
الامريكان
risk
يدومها
prochain
recherche
غبريط
97
fara
ling
ضياف
غن
هير
يلبسو
##بتي
##وحدة
##pres
##ديال
الجدد
##neur
##عمى
علاها
##هيل
بعدو
استبد
الزح
##كاند
تشاد
نشرت
وقوة
##lhoum
dude
forget
الاردني
##فقوا
وفجاة
بايت
سرطان
خدمو
موسف
يزور
اولادها
##gggg
حقوقنا
الاغبياء
##تتتت
الالكترونية
later
الاطراف
##knch
النشاط
فاميلية
mafihach
يهاجم
lour
ult
جالك
شات
❤🇩🇿
##سوال
##uka
##gab
##35
##ولدي
##ديقة
##عده
##اهوم
القه
اخونا
le3
ومث
هاذه
##اصلا
وبدات
hadil
بتشوف
حسبيا
يبون
وقعدت
مبين
اللصوص
##fi9
لعرب
##lok
لابوليس
كفى
جمالا
greve
معناتها
wa7ad
ترجعي
بحياته
kids
بالجمعة
الدولارات
mziya
esprit
57
bayern
hur
kk
sors
بحم
تار
جوال
لكر
ملاب
مورد
نكن
يسبب
##تصاب
##zek
##ouki
##ريدي
##وروبا
الحلقه
راقية
الترب
التكوين
امنة
##ayeb
algo
وتط
chniya
##فسير
تحويل
واشت
##رضت
لقجع
اجرا
succ
##zairi
تنه
الردي
حبها
lock
##iniz
karna
مزور
welkam
salle
houcine
لعبد
العمومي
ntiya
للباجة
يزعل
وعندهم
يلقا
تصرفات
tomber
fatigue
بونجاح
ممتازة
كرشك
مالقري
خبيث
hindu
##صاييات
3t
خاشقجي
مالب
يخلط
ﺑﺎﻟ
##bna
##bang
##زنا
##yk
##ذذ
##خدام
##ouci
##enu
الازمات
##tted
ليح
الحلقات
##reft
بالاش
امكان
##توراه
##لقاو
chb
ومق
بلخير
يقص
bouma
##kach
##fai
نبني
مغني
yekh
والسعادة
حلوى
المنافق
فضايح
2001
nadjib
وعندنا
priere
حدثت
##grats
wechbih
##ере
مساعدات
##friend
تشيلسي
frontieres
algiers
vari
w3
حبل
رخس
زجاج
محي
##رسة
##wood
##29
##мо
##리
##گان
والقيام
معقد
معاملة
##ored
القاب
الخارجي
الوها
##ssan
mora
احزن
seif
وعيد
نفسا
نشد
نشجع
بقالي
##ضحكو
juge
ليسو
عيونه
خاصو
ترتيب
academy
نديروها
جايز
فهمتها
plate
##itaires
##بكاء
ببلاش
اللاع
ziani
المالكي
امكانيات
##🤣😂🤣
البوراك
yahiaoui
انجلترا
mourir
7e
jur
midi
ning
tale
ازا
بته
حده
حاوز
دالي
سوو
ممل
يمضي
😎😎😎
##icha
##hmd
##9ay
##زوا
##पर
##لاما
##يند
منجد
##املات
##lame
ليتك
البند
laugh
##ااات
##وووه
##rich
تباع
يقر
سيعود
نسخ
للاخرين
rif
بولاية
لاتت
tradu
##بدع
ngol
العمليات
##stafa
##راسات
doute
يجعلنا
قيمه
الاوطان
ممتعة
يغيرو
سكنة
fethi
critique
london
##justice
emission
ghat
jgn
lati
nadi
wra
wake
تله
تحد
حفيد
دعي
قناعة
كومون
لبار
ناص
نهر
सव
##غله
##غيب
##uan
##pur
##ghe
##فرك
##ᅥᆯ
##انم
مابان
##ابن
الاء
##miz
معصيتي
##aks
الكعب
##كيلة
يشرو
##زيديش
parmi
الغاف
ta9
وليتي
لبنت
وصالح
الاستمرار
##رايس
برومو
ayam
minute
المصطفى
مهبولة
##aaaaaaa
طلعنا
صغر
ملايير
##erais
##ology
سرعة
دراهمي
للعرب
milan
التعذيب
صورته
قعدو
تبعو
للقضاء
انفصال
كذبت
ظهري
الفارغ
reaction
pakistan
##すきて
dunia
المقبلة
توقيف
entendu
g3
mlah
nger
ركي
قهوه
يظل
٢٥
😊😊😊
##زما
##got
##ظره
منشن
الميل
الحمل
البدر
البطولات
تعها
اليون
اليوتوب
oune
ونك
الزن
الزايد
باحترام
تشرين
وعق
stones
ahl
muhammad
troh
والحكم
salma
نظرت
نظافة
cuz
حقيقه
udh
للخدمة
ونعمة
silva
بالمعروف
jeunesse
##لسوف
longue
universite
request
voyage
aal
bia
hoo
lts
pfff
rp
tfo
ازاى
حروب
حذر
ستم
يود
٢٤
##cje
##reddine
##タイ
##ीर
المثق
بالمال
الدخلة
تحض
##عودي
وجا
وحياة
boukh
وينو
الاسواق
وزنة
انهاء
الناج
sahel
ورمضان
وطول
يغلب
##راحل
حبيبك
ملخص
brain
تعلمنا
##olog
الهداية
sabe
ضحكتني
جيبلي
##cron
##hakim
جنتي
gets
##fouch
اوموا
travailler
constantine
vaccine
ياسيدي
space
physique
56
cut
mwa
tana
بة
رمي
سهام
صوال
ضمان
ظلمك
##fort
##mha
##kah
##زی
##より
##خبط
##ди
ليو
بالانت
البدي
امد
##وتفليقة
وعين
##ضيض
تفوه
dai
rohak
احدكم
علمك
vaut
المتعة
djed
##more
تيدي
الاعضاء
اجلها
نقراها
كليتو
droits
وسيم
العينين
يتحاسب
والمسلمات
رغما
جبدت
ذويهم
الزهراء
3000
91
pn
tima
عظمة
كهرباء
たった
のお
##sr
##درب
##ڨر
التربيه
##ااح
فالشعب
يستقبل
الهندي
وكلهم
chek
بانو
ta3k
الابن
قدامى
fella
الاتنين
حرمة
التاريخية
مضاع
شهرة
مبارک
ارواحنا
الرقابة
اعلامية
wllh
عريوات
اصابته
##ックス
نقطه
نرمال
مانشستر
objectif
9as
bf
brah
nsh
мен
حدة
زبل
قيا
لنت
😄😄
##طرا
##gm
##カー
المسك
##اييه
##enia
##ستطيع
معاذ
معليه
اوفر
الكن
##ides
##وفية
choo
يتميز
##dii
يحافظ
reu
##وعات
بعينه
amma
محاس
youssef
يستنا
protest
frid
الهن
مناضل
علمني
expect
hoti
twah
mnt
##يريو
##صفور
نتاعكم
جايه
emer
##يتكلم
رجلك
fog
الانتقالي
بيتها
مهمش
وابناء
الهدايا
sayang
##nych
العقوبات
بالجوع
##يعطيك
مهاجم
ااااه
##♥♥♥♥♥♥♥♥
continuer
هبلت
horr
connexion
##ㅋㅋㅋㅋ
definitely
ملعقة
pression
corrup
واصبحت
66
تفي
عید
عافية
للاد
いい
##هيا
##oon
##kot
##ثون
##انته
##oule
البوز
##قدت
الكيف
chy
envers
##وووم
##ief
ميعرفوش
ille
ماتقدر
باخر
desa
##زمالك
fire
وسه
لكنت
ro7i
rama
كبد
sila
وخارج
biz
صايمين
تطير
وفى
ترسل
المجهود
touch
فاقت
كفايه
قرانية
باسمك
2006
selon
ssem
##🥺🥺🥺
الدعارة
##😒😒😒
entrepr
fallait
##opho
boyco
ذنوبنا
##غوطات
7l
dame
yallah
ضو
مرج
います
##بالك
##نحب
##bli
##طهم
##ych
##🐸🐸
##ابير
والرج
والمال
ليبي
deus
التخلص
##رفش
الدمعة
للذين
الصراحه
الصلوات
eter
اييه
##هدروش
##هونا
اسل
بدلو
abe
وللم
##تمها
##لاقا
ازع
goes
فعال
##بداية
ابنك
ghali
حبيبها
بجان
wind
سخانة
باغيين
asmaa
degil
عاودي
ينحاز
ridic
especially
violence
الايجابية
شفاوك
jwe
tali
yhd
جربي
عيي
كونا
وحمد
👌👌👌
##اولي
##wch
##मा
##ديده
combien
mash
##orti
als
##a3d
limite
اشبه
conte
ينهب
مرس
قلبهم
blood
mona
hea
##اركين
مصيبه
##فقو
مانح
kepada
lyes
الاجنبي
واخرة
الانتقام
ولوكان
##venue
##hadro
وغدا
tfkr
تراها
اونلاين
sorte
الحسنة
fume
kerja
فطريق
والهناء
البنوك
rbna
##حشموش
##حاحنة
reporters
زندگی
gene
kbar
veri
zoub
اال
عطي
عبارات
غدر
마
사라
##ies
##blm
##خبة
##😷😷
##🌷🌷
##🥳🥳
المضحك
##miya
السالفه
##كيات
ويجعله
salama
غيركم
مشان
احذ
وشو
استحق
##صلحش
اتفه
تشكيل
chapeau
نفسنا
ادخلو
##بتش
لحل
ماندير
لابناء
##moh
ﺍﻟﻘ
buka
زادا
yahfad
للشخص
shame
kadri
available
sama7ni
صيامك
الترند
ونسيت
sister
مراحل
يشتكي
قانوني
5al
jel
tiens
yor
تضر
خروف
مقدرش
وفعلا
बह
##كيتش
##ait
##ाह
##コン
المحر
العالية
العادات
بالضرورة
البرب
اخلاقي
اسراء
لمثل
sehat
الاماراتي
##قلش
يبغو
توظيف
الرع
مستقل
bene
ديركت
##وضح
تدخلي
تحبوا
بصورة
guar
وفكر
##وبيس
نيجيريا
لعبه
assil
قبلي
##omage
##bouch
خلاك
شافني
تفهمي
البرصا
devrait
sara7a
الجنود
missed
يكفينا
هههههههههههههههههه
ميمتك
majorite
unique
الوقاية
الموجودة
ترمب
siap
عجزت
##55555555
جراحية
hospital
fevrier
fm
بهي
خنا
لفلسطين
مانا
نعيم
🇱🇧
##uj
##pen
##9si
##فاضة
##7in
انستغرام
comes
القوية
للر
للبيع
##منون
chir
بيحصل
يترشح
##ceur
اصله
بتهمة
محلل
##ffee
يستطع
##اذل
صدور
semangat
u200d♀🚶
دعيت
finish
الحكومات
التويت
yahdi
انشغل
للخروج
جارتي
##dzie
اكرام
الاضراب
باخلاق
مازالك
summer
ahi
awah
bna
bata
danger
ff
icha
تير
تواجه
فليك
فحياتي
ميا
مصلح
सब
😜😜😜
🤲🏼
##رحت
##هرك
##ووك
##tas
##درة
##ذان
##37
##なって
الجلد
##زاك
##ilha
مسجون
عمه
##hof
وجمال
اتف
khona
##سكري
وحشة
اللطف
مكشوف
نبغ
اعتبر
ﺍﻟﺬ
بالعراق
ملحد
خلاو
جنرالات
وبينك
الزوجية
ناكر
followers
morts
mafham
کنند
وتبدا
الوجبة
غايض
الاطلاق
يتفرجو
cousine
الوسطى
نيميرو
التخصصات
التاسع
gauche
التماسيح
dida
hane
swi
برى
بزن
تاق
نخل
##عاون
##jn
##hle
##قذ
##لاقى
والذين
##ميين
##hee
chil
indust
##وليرا
الطول
الانش
parole
##zaz
المساعدات
نقش
بحول
لعيد
ستين
تستغل
تاكيد
mahb
rip
ودرك
##بابي
الانتخابية
خلوني
l3ib
اربعين
فريقه
احمدي
ثقاف
الرقص
redha
mafieux
##3333
الثقافي
يوصلو
نقعدو
habibti
يوجع
absolument
ارسلت
original
abdelaziz
echa
hib
søu
yess
це
حاي
ديتها
فلف
قوس
قراء
مكون
ہم
##mubarak
##pd
##イス
##ظا
##🖤🖤
الاعبين
##ياذ
##يدان
التجار
التابعة
ويثب
يتقدم
فالنهار
##احنة
ونظ
##رقية
الطلابية
وجمع
وبش
اشارة
اصلك
fix
محله
وليه
بينو
اليومي
wald
الهـم
noire
##cking
##vaise
اطف
المغفرة
نبان
peri
mouss
حلل
مرتفع
rouhek
للعصابة
balk
##ساتذة
قليله
صحبة
ya3tik
y3ay
somme
##عندنا
بورقعة
تخليني
aurai
relations
suivre
village
marketing
دماغي
حکومت
الدقايق
mungkin
equ
mille
خونه
درمان
طماطم
فلق
##غرة
##عجل
##صارات
##gna
##もの
##──
انضم
والدم
والده
ولاة
اميين
الدراري
##eth
##ودان
الصمد
##شيشة
ento
ابايهم
نتس
##hos
be3
near
chad
chap
اصير
##ulan
تسامح
يدرب
##ونايتد
اطال
terrain
اختراع
دعوه
تناول
##nyata
المهرج
7a9
clair
option
عجايب
القطرية
الخليفة
شمبر
معندو
طايحة
كايدو
##عجبتني
میکنه
خامسة
يطالبون
فاحفظ
chokran
الانتقالية
شعوري
مقاومة
055
nakh
xi
شهاد
シャ
##5a
##ーン
##ناج
المروك
anos
واوقف
ليبر
saa
##ya3
عمرة
sept
ماتنس
لانقاذ
تخون
يقهر
##inaire
bouha
manar
loh
مانس
المنظمات
apni
atas
yake
تراني
شرقي
مغبون
focus
رييسنا
flor
بالقليل
azzed
الملكي
حقوقهم
##nnn
issue
بوده
akhy
bht
شتاء
الابتلاء
غيابك
ترحلو
wa3ra
ودمع
رسوله
9rit
bure
houm
sedih
تميز
ديا
조
💙💙
😋😋😋
##هذو
##جها
##جلو
##خمم
##ﺪﻭ
الهام
##انوك
الموز
المرس
واليه
والخير
ليما
معصية
mada
##تيلو
بالدموع
الشرح
اخبرو
##entes
ويلعب
##جيلات
اسفل
ne3
ديون
بنان
بدماغ
condu
congrats
مقلب
doh
مانقول
بصف
ورايا
sonia
اختاه
tradition
daron
عمركم
##wej
رجاله
ملل
milano
خدمه
جبنا
agr
##ouaib
المطاعم
mets
جنگ
cuando
ndirha
التلفاز
نقلكم
capable
لقطر
ههههههههههههههههههههههههههههههههههههههههههههههههههههههههههههههههههههههههههههههههه
روتين
##غاريت
lr00m
correct
awe
jose
jvai
tadj
да
درار
سيني
هيد
يكل
١٦
지
##ile
##صورو
##gd
##جدة
##ো
##💃🏻
##😖😖
انوا
المدا
المعن
معينه
الفتح
الكاشير
##uran
ومكانش
روما
hawa
الزوال
الاندل
تموتي
##mez
اجله
باشا
##zaid
##فعت
##gala
##سرات
اغسلي
علمنا
##ديكاس
وكلي
قاعة
##uke
خدع
##ضحى
##قراية
واتباع
##ذكور
هتت
حشاكم
واصير
لداركم
يناسب
tv조
سقسيت
القضايا
conseil
bennacer
tv조선
bø
cø
kik
nabi
مجي
نايمة
نركب
ولها
##اورة
##uo
##9ah
##yati
##31
الديك
##ouani
##miste
##atha
##سيمة
الفاض
للعن
النقص
اعيد
تحوي
moyens
تتمني
تخبط
connu
مجانية
الذياب
لحن
عطيني
عقولهم
services
taking
##eries
ردود
ident
للكوزينة
عربيا
ويقولون
الخبزة
يفرحو
tekh
medecin
اقدامهم
الزلزال
التكنولوجيا
asta
تضي
تياس
حرت
زلا
سرت
فیمین
هدم
❤🙏
##uje
##ville
##g3
##ouchi
المافي
##ايقة
مابقاش
لافار
##تيف
##رجمة
##ركر
القطيع
الكلبة
وتاريخ
##وجوه
##لتم
نتمن
reco
لمغ
##ــة
الانتحار
يشب
قدرتش
اشاء
##ulo
sof
sud
##طرول
يستناو
نقلو
اللطيف
والمخ
pode
خطاك
حمود
##بولا
lydia
##فاخر
میده
الاعراف
نطلعو
##یدی
حطت
يزداد
melissa
المطروح
scien
moments
الاغلب
الاختصاص
بزيادة
جعله
الميلاد
تنساش
لدارنا
examens
record
risque
u202b
evian
78
kend
بھ
بحت
تمي
جذي
نوكل
وكتب
##jm
##uwa
##その
##7b
##anan
##راعي
##ombi
والبط
البطن
امزح
##يهش
##stom
##ilou
##rol
##how
##unu
موظ
اهون
auf
وسعادة
dubai
مبد
مايقدر
اللج
##ازات
قلال
ta3ek
برغم
jazay
الاعراض
masjid
samy
brun
للشارع
clash
sometimes
green
bghiti
weekend
لرمضان
للغاية
يفعلون
kinda
امازيغ
نازل
nfs
جرج
جراء
طريقي
فندق
قحبة
نربحو
##اال
##غادر
##بتك
##9od
##طابل
##ذور
##فرو
##なぁ
##те
##ду
##ﺒﺮ
##⬇⬇
##رابة
التقي
تعاطف
##اسات
aly
بيعرف
نتوم
##نوها
yahafd
هادية
ماتقول
بعظم
الغش
لقلب
لقلوب
##رمى
لبابا
##علوم
يصوم
للمزيد
الاحسان
##vage
نقولوا
##rouch
barra
والاصحاب
ابنها
canc
وكانو
kamlin
بيتنا
##تبان
##arej
بارطاجي
##كشن
ziane
خلوها
n3ich
بالجنة
الحرامي
فبلاص
يحتسب
كسرة
لعمرك
مراهش
asln
bete
flou
ngu
افي
زفت
صحتها
لصحاب
مروح
##col
##ضمن
##bour
##خية
##フル
الحن
بالبيض
##نيد
الدجال
##imes
##وفو
##ilt
متاثر
##بعش
eles
الزهور
##taa
تبدي
اتركه
مده
فرط
##tob
اللغ
لعين
##فلح
لابور
عقيدة
حمامة
seront
الفيد
نديروا
صدى
##ونسية
petruk
العمق
لسنة
hasni
ابتداء
يديكم
خدمتها
خلايا
منتهي
وتحية
اشتاق
##اسيات
صواريخ
تبرير
##رويتي
يعاودو
بتتبع
##تويج
##🤦♀🤦♀
moumen
##withu
either
sib
slt
wou
بمت
دلي
ساقه
ضوي
طرون
فاه
قلم
مولي
يلوم
##اوس
##صك
##صلات
##ثور
##かり
##दा
##serv
انجليزي
الاسي
##كمال
العادية
##ومان
##eles
السبة
تعطيك
الكاي
الصمود
leo
alm
enfer
مشاف
فالمس
ونه
لمك
##tages
selama
بعقلية
وحدكم
اجره
blm
التيك
منافس
تعرفش
ترزق
dziri
جايبها
مينداك
وراحة
تزود
محدد
سالما
answer
لاهله
##😢😢😢
210
الديار
بوجهه
mauvaise
ذكاء
مشترك
reporterswithu
lzm
pck
تظلم
جيتو
دولية
ردو
شون
صلات
فکر
يجلس
##اار
##يلية
##zw
##نتو
##صرت
##gim
##اركي
المونديال
ماكيش
راديو
##ميمة
مسار
##وسسات
اسك
الطبيبة
باديس
condam
توال
لكبار
لباقي
الثراء
ادرار
مقبولة
تغطية
##fian
نساو
مالت
مصور
##jich
يحبسو
المتب
##خليها
rou7i
قدرتك
هاكي
##٠٠٠
الخطايا
جرعة
بتوقيت
العميق
##👏🏻👏🏻
7saadiya
7m
sada
wants
شمل
مڨ
ناو
ٱل
いつ
ては
##وطة
##wek
##cq
##arf
##ستونس
العثمان
وايران
معطوب
macron
##فيفا
الجبن
الجهوية
ياثر
السور
امم
الفارق
يعارض
saja
##عمو
تحفة
lives
jeux
amm
تشكل
حسرة
محارب
اجرك
اجهزة
راحوا
boug
##الحراك
تستطع
الناصر
ماراكش
حكمو
قاتله
يفهمك
بداخلي
عجبك
اولادهم
##كيفاش
التجول
قادره
صحيفة
بيبان
للانسان
اكتشاف
يعملو
اجيال
mandat
كسبت
الساحر
ضميري
كهربا
وجزاكم
dlm
iانا
mha
rj
yay
اذه
لصفحة
लिए
おめてとう
##olek
##чи
البخص
الخصوم
##sses
##فرد
اكذب
وشرف
تتصور
الانتها
يشطح
اصابات
بتعليق
##salah
داخله
مايحس
kap
نصرف
مصباح
eslam
ta3ref
msak
##وميز
سلول
اضغط
العقيدة
وضرك
واضحه
##عندهم
mohim
##نشلة
وكتاه
نفرحو
يهدد
ماعليك
اولياء
يهودية
المخلوقات
الزكاة
nder
oi
rar
بفكر
خماج
روي
غو
مطبخ
١٣
💔😢
##بهم
##det
##هـ
##sah
##ﺬﺍ
##たけと
##ンタ
##ві
##🤤🤤
##لاهم
اندية
الاقي
##alna
##ayoub
الدكتو
للسي
يعز
لمرحلة
ligue
يسقس
##رشو
بنزين
##وهالي
socia
##gers
we7
algeri
لعجب
الذوق
poor
mign
شعبا
الصحابه
ودرت
##فضح
##قوات
vip
##3bo
قدامه
لسبيطار
يفهمها
مراجعة
نندم
ثلاثين
sortie
نسمعها
امثاله
فجاه
رافدة
عمبالي
##وناطراك
النسوية
chh
hang
nhe
tien
شراب
صحت
غابت
😤😤😤
##عمي
##بدة
##zeb
##bed
##gah
##ـوم
##フラ
##по
اللم
انگ
المكت
معيا
##rada
بالعم
##ator
الشتم
الشيك
##نتهم
القهر
للحب
انتخ
ويضرب
متلا
متست
وانتوما
##tee
يتفكر
يتباع
اكتياب
seti
##chak
بتغ
تفشل
##طرين
road
مايشوف
اسمهم
اسمعي
اليهودي
comport
خالق
##🤣🤣🤣🤣🤣🤣
jojo
الفتره
arabic
تاريخية
mtu
saraha
##issez
رضيت
واقعا
indones
chahinez
دكتورة
yapı
9ali
ahhh
tse
تظل
صامت
طاجين
علبة
قست
مرق
پول
##ااع
##ثني
##ﺎﺑ
##ーク
##انكم
المقه
##alou
واحي
##ellah
الشاوية
تعهم
تعاير
للعم
استعمل
يسمي
اتغير
يمشو
تصفية
##hamad
لحبيب
proc
يصعب
بقلاوة
ريجيم
guano
jaga
شرطي
قصور
جدارة
compli
وارفع
joyeux
قدامهم
##یدن
ويبدا
يخليني
يتحول
بتويتر
رفضت
السويد
semaines
يعطوك
توقيت
retourne
دماغك
توصيل
##ısı
لاحظت
السراقين
ياجدك
gundogan
ذراری
solidarite
فیمینست
jms
ka3
kash
tata
tdir
برف
كوات
##رخ
##nk
##pic
##9e
##38
##جامعة
##きます
معقولة
##ahkan
البك
القاهرة
الصلاح
اخطات
فالث
مسجل
mother
haven
استحي
الطاهرة
##صلوا
يشغل
خيركم
تمتلك
مدح
ark
##والدين
لتخ
مثلكم
##pagne
الاجدر
attendre
ساكنين
مشكلتك
تزول
البيتزا
يردد
😭😭😭😭😭😭😭
diffic
سعدان
entier
احترمك
ينتظرون
منزله
##ريفيزي
faiza
🌺🌺🌺
dang
gent
jma3a
بظ
حجز
كلوب
نيت
##یق
##غلت
##cien
##ﺮﻛ
##ны
##ھہ
##━━
##ㅤㅤ
##لاتي
المهب
##ماهير
ليق
معروض
الساب
للحق
انتق
##وولية
يحير
##عيان
##هيلة
ميح
تبدع
##wac
تشك
##طوات
تمث
مدرك
##رارات
تنبيه
مايحب
##cker
exception
المتخ
الحقرة
ayo
نشوفوا
malika
خدامين
##ااااه
darou
فاغفر
الشرذمة
لدزاير
وابو
halla
دمتم
tahia
المهنية
كشفت
civile
الحريري
##عادل
قضى
arret
##113
فراشة
تتكرر
الهيية
انجام
مرفوع
##video
82
didi
باطة
تزال
حريم
ذكور
رہ
رن
سولك
شرة
شجاعة
طاطا
عيت
فلة
يالب
يغي
يتيمة
##مفهمتش
##عطي
##تی
##ضين
##ـاب
##かも
##この
##°c
فيات
انقطع
المور
الماج
واليا
##chouf
ليكي
##ties
القس
chn
##roh
##احنا
يحتوي
ونحنا
reti
صحح
ماتب
##osed
كيفكم
اصاحبي
fihoum
نشفى
arm
##فعله
اقبح
نقلها
مالنا
بقلوب
بمصر
نخليها
##كاينة
kante
رجليا
welit
موجة
بلدهم
تفهمو
##touna
تسمعي
posts
##ちゃくちゃ
تفكيرك
الكبدة
صلاتي
للامام
reveille
سراحهم
اغتصاب
حديقة
ماسيطا
jim
nit
tcho
xa
yast
со
جلو
حاطة
عونك
فوض
لراي
مكيش
گرفت
ﻋﻨ
😍😘
##vas
##bib
##36
##❤🇩🇿
##🚶🏻♀
##هادا
الاوس
##ياش
ليص
##فيهم
السهرة
البعيد
الفور
متفرج
وتدخل
##هههههههههههه
يتسما
اكله
اكلة
استعمار
تتمسخر
sea
باول
chal
بتلك
الغربي
الغبار
مثيل
وقاعد
مرمد
يستدل
نقوم
فتن
المعزب
فهمونا
ternyata
3ach
ولادكم
الحكايات
##ormal
##mouni
يرزقهم
وراهي
هاكدا
نغني
لحمي
نسينا
والامارات
nmchi
ينفعك
اللبسة
موالفين
##اقدين
الضيقات
تلبسي
##yapam
وحدوخرا
5a
esa
ezz
fib
iyad
kle
اربي
شلف
صـ
قميمج
يالع
तम
ﻳﻌ
😱😱😱
##مق
##كثر
##via
##جاهل
##たく
##🥲🥲
##ツイ
##ارى
لاقي
بالامر
##tiya
allo
وتمر
استمتع
الطمانينة
الامت
شوارب
##ندس
موراك
وصايي
belum
مصايب
تعرفين
میش
والتس
justement
نويت
edit
لسيد
المقار
ركعتين
2003
حضارتهم
والقانون
ننتخب
inchaallah
مكافحة
يجازيه
9el
9raya
hali
ndo
nchofo
venez
اركات
طرب
ظني
قاهر
😂😅
##ینه
##غالي
##くる
##🤷🏻
##ouu
##ونش
العلمة
معزة
##يتني
الشف
##hete
الكافي
qual
##كنون
النفي
ابشع
مسافر
rey
##usha
audi
khalina
##وباء
يدبر
وصلي
signe
الاراء
عامله
##faf
يحفظنا
djalil
permis
##page
دوماج
المصداقية
مطال
buzz
##جهنم
نظرك
interet
بوتفلي
مولود
البرلم
tweeter
بريية
فنانة
ttps
لاهلها
شريكي
نرقدو
ينوضو
الوفاق
##غرامات
عاوزين
##orable
bleu
القتال
تحطيم
parlent
patient
والكرامة
awa
dwa
igu
wine
خور
قله
كعبة
لصح
نذ
ناري
ناخ
🇪🇬
##يكم
##fun
##mchi
##kes
##んは
##ため
##フォ
##तर
##🎶🎶
##💐💐
الديو
##ouan
##امو
madar
السنا
السايق
كيان
##tiii
##hehe
الخراب
ويكت
##ووية
##خلعة
تقرر
##بحو
محروق
##وبلي
due
اغبى
مناقشة
##araf
لتلك
##mentaire
##صبرك
##ologi
اللازم
yahi
لامر
lblad
حشمة
##كيفاه
بقيمة
انفجار
artisan
تصرالي
commencer
ارقى
يسكنو
يبرر
##بببببببب
##نورمالمو
language
dimanche
51
dour
sot
t3a
tama
wissem
براك
تولو
فتش
قمع
وفلسطين
ينوب
भार
वाल
🇹🇳
##jaw
##فوت
##ليغ
الجبهة
القيل
للشيخ
متجيش
احلم
fail
تقاشر
nego
وبما
##معني
شوطا
اتاي
مستشفيات
رايحه
benar
benam
ادخلي
##درسة
المنهوبة
yako
اخترت
couilles
راسكم
قدامها
##lll
يلعبون
hash
متوفرة
كليا
يوليو
##الجيري
المريخ
جارتنا
mdrrrrrr
annonce
بحياتك
بيتكلم
الطيارة
ههههههههههههههههههههههههههههههههههههههههههههههههههههههههههههههههههههههههههههههههههههههههههههههههه
ingat
fasting
تتسقم
هارون
7el
dkhal
ice
zidi
от
لالم
##شط
##wli
##ying
##ﻮﻝ
##ну
معص
##lette
كلبة
التضامن
قالكم
نتف
نتابع
##جعلك
الزعتر
##hiya
تقلد
sebel
اتت
##طنية
مايعرفش
mardi
تغرق
menhom
بمرض
u2067
##فلوا
تحبين
التحرش
قرع
petits
سمعته
direction
التوظيف
كلماتك
tfar
liberez
ويسعد
للكل
imagin
obs
##خسارة
الالماني
wszy
khawla
##💜💜💜💜💜💜💜💜
wa9il
3lh
gem
siri
как
ро
اصحى
قارية
لمة
لعمر
يضي
ﺗﻌ
ﻓﻴ
##ql
##kaya
##bem
##صت
##47
مادية
ماحبش
والتك
الاثر
##ربنا
التزم
##head
للري
يعس
ense
اليوفي
احكيلنا
##وسسة
mega
##دوغان
##وعلاه
##طوطة
ربا
ينفذ
داود
مايقدرش
##بتني
لعرس
شعرو
والمست
لنشر
بطال
muy
المصابين
اخينا
الايادي
samah
canada
awel
امامك
ابيك
يلعبوا
depend
الهموم
فخرا
##🙄🙄🙄
ويقولو
حاشاكم
photogra
يستطيعون
yalla
zidane
وحبك
مومنة
responsable
perdre
ronal
gard
lho
pata
yema
بعمر
رهم
زياد
ظاهر
فحال
فمه
كربة
نراه
ﻭﻟ
##مث
##كوك
##za3
##ضافة
##ظرك
##อง
منج
انقطاع
##ونال
الجبار
السمك
للما
للغرب
##وفري
مشات
تحسو
تحافظ
ouh
##inga
##riya
باذ
khl
فرانس
وحاليا
تسلمي
sup
الرسم
وخاص
حبنا
مصرية
pred
سمحيلي
abdenour
اجلس
blague
نوح
خصنا
خصها
##مارس
نهبط
خلالها
particu
##ennour
توجيه
بعثت
radia
الالمانية
يمثلون
المدربين
laissez
😅😅😅😅
استفدت
رفيقا
يفتحو
khedma
واجهوني
دموعي
secret
assassin
erreur
reussi
hall
عان
ﻭﻗ
##ais
##qe
##سرت
##nelle
##mene
##ـرك
##ня
##41
##لاغ
##بيتهم
##arin
والثلج
لاء
وافتح
بالدو
##ablo
الوهاب
فالاول
united
وعود
موث
na9ra
اقنع
##وزارة
mouche
واعط
bud
##دعوا
wasn
نيوم
لدرجه
مرته
بناتهم
جلست
kalangan
خاوتك
member
الفقيد
متعلق
مافيهش
النعاس
قارورة
##khaled
مخلطة
اغلقها
تغامرش
52
68
till
yti
تيت
خج
سوم
نين
نجب
نوقف
يوجه
کنم
कया
##شوش
##عاة
##dle
##♡♡
##امعات
anas
##liyorum
الشبيبة
lai
الخيل
متجر
chic
مشهورة
inta
##فران
يتمسخر
يحن
الطاب
تشجيع
موبي
arch
لقمان
suc
##سلج
مجاش
مجرب
teach
مايعجب
تجده
نصور
noti
coisa
قتال
الظاهرة
لاتربح
اعتذار
يجيبها
based
##bourahla
##adech
regre
gift
تضمن
امنها
واجعلني
لبعضاكم
وسمها
maghrib
تغيضك
holy
المعلقين
psych
الكتروني
jcro
بوسعادة
1k
jul
lham
lento
го
حوادث
خراي
ردك
عذب
قديما
کوي
##اواه
##مسة
##😂❤
##cto
##गर
##خري
##🏃🏻♂
##هاذ
انغام
##ديمه
واطف
qualite
##لبها
وتجيب
فالفايسبوك
##بعت
elm
##رقم
تخلى
موز
حساسية
توصف
bouge
اليومين
بحل
##اذيب
شكوى
وفال
##mok
##جمات
والتاريخ
عادى
ردنا
شافها
presente
العبادة
dahmani
فنفس
##ومنتي
انقاذ
yarbi
explique
##💜💜💜
الديون
يحفضكم
يسعدكم
visit
خطوات
تسيطر
السورية
داخلية
البوست
تعرضت
تبتسم
cia
kf
lwe
nkon
tle
uda
vet
yst
ببل
جهات
خله
خالك
لوف
يضح
پہ
##fra
##قرة
##ні
##oux
فيكون
الحشرات
الشوفة
املي
امهم
la9
##منشور
yalah
belab
ones
تشافي
اشع
يبغى
##bila
اقليم
تجاو
##fich
##uman
stars
شعلت
لحالة
حبايبي
مكسور
للاستاذ
imam
نجرب
boys
##باحة
سميت
والعياذ
sher
موافق
##gno
tipo
##9i9a
خلاها
تاريخي
lazam
intelle
يرجوه
dirige
bangun
النيفو
anisbourahla
جنبك
##🤍🤍🤍🤍
college
سلاطة
امنيتي
contact
fonction
beda
heka
jih
ثقب
حوش
لقت
يره
يفتخر
सक
⭕غرامات
🙏🏽
##ever
##nane
##ضام
##œurs
##ouya
##enye
والنساء
العجز
mache
السيي
##stal
##قولون
الوجع
ابك
fala
وعز
كنتوا
hadek
destin
ficar
قبلنا
محور
##اتيح
تسوى
##فظة
يصب
ta3o
boire
علجال
جدهم
samedi
نطلق
avoue
##boy
سمعتو
ederson
##lars
نزيهة
retur
تناقض
##خدمو
اشوفك
##ınız
مقدس
##krim
هزار
mwas
بالانجليزية
afficher
achi
gara
mss
ydi
تى
حاتم
شبيه
لوا
يرو
##ملك
##شرك
##nim
##udo
##tis
##طاول
##حيه
##جبة
##もん
##2l
##누
##پر
الملت
##ايفي
##aleb
الحلاب
امارس
##لقاه
النز
لمخ
استن
اصرار
موضع
خيره
##يمات
khara
##زيدو
تصد
ارنا
نسحق
لعشا
لحساب
##سوول
##issou
##coin
والعار
فهمني
##جمش
مارانيش
alih
واحلى
brabi
ناسيونال
ديالكم
يالوكان
حرارة
ومتى
توحشناك
affaires
محمدا
كاينات
ياجماعه
مزيدا
studio
افغانستان
nde
توع
حرار
دمي
قاوي
مضل
たから
👌🏼
##مور
##dor
##ming
##rd
##rant
##دش
##band
##ذبي
##gk
##ми
الضعف
##هاذو
##oug
##ولله
لاڨ
الحريه
##ahid
السهل
##ayen
ويعيش
##وتن
وماما
ouiii
parc
بتعمل
اقای
اللواء
اغنيه
هدرو
يكبرو
##dert
##تحاق
المحافظ
##قرير
cancel
##vious
##قبلو
الانتباه
assist
##rated
tahki
اصبحوا
لامان
porter
والصبر
تزوجتي
mosquee
##💖💖💖💖
energy
viennent
3rf
jpp
tire
ثلج
جها
جيمين
صادر
صوارد
فاب
لروحي
لداخل
ملال
وفتح
##ضها
##ンシ
المهر
##arde
analy
العايلات
ليلي
بالهد
بالواجب
devient
القنا
##اااي
اعاد
بيغ
بيصير
##رحمان
##ibo
##وليد
الطير
##iih
يقري
نشفا
aren
soft
##الحاجة
كونه
##them
المنتو
##رسا
##رسالة
serine
##قالو
sahou
احتكار
تشوفهم
قالتلهم
بارح
منتج
##دددد
smart
tarik
scam
pouvez
drop
يصبرهم
كوبل
tchoufi
لاخواننا
هزيت
##buka
تندوف
##🙏🏻🙏🏻
hands
السفينة
الصادقة
الاعلاميين
ballon
early
وحسبنا
absolutely
cast
ful
titi
ygh
جودة
حني
حذا
حقت
رغي
شره
शरी
💪🏻
##ينات
##sas
##せて
##😚😚
الالقاب
فيلا
المولد
anal
يافتاح
##زاهة
البساطة
##نتر
وتلقى
boussa
تجو
الابراهيمي
دايمة
والتق
وكانها
لخبر
repose
خصو
مولم
الروعة
ارجعي
الحرقة
تديرو
وتقعد
تتعلق
سبيسيال
خودش
زبالة
دادن
وتركيا
الثانوي
الفكاهة
controle
الخالصة
apprendre
4n
تقدرش
ثواب
ريش
سمين
طو
فنية
كاا
مصح
れて
##pte
##نعه
##baa
##ـش
##👍🏼
##ﻠﻚ
##iny
maar
##adia
ياشك
التحت
##ركو
##hela
chkou
اعرض
##المش
وجماعة
اتن
##فعول
مستوي
المنط
وفاته
##يريين
makayn
##pagn
resto
شبعنا
takut
مزع
لخويا
وكيلك
اثم
انساك
2007
لامريكا
السلسلة
فقرة
pied
tbh
lbnat
شغله
شغلك
wife
a3la
يحفضو
تضحكو
بوركت
tri9
kembali
توقفت
🤔🤔🤔🤔
هاربين
يجعلو
فايقظني
competition
rdv
seriously
متكونش
lc
mist
ohamed
pil
ابلغ
بففف
تثق
تفتخر
ثنت
ضدك
قذ
قرد
لبلد
هالت
브
ほんと
##روني
##غين
##دامة
##زرة
##طره
##صريين
##gang
##جيا
##ـہ
##xp
##😲😲
##الهمش
انصف
لاولاد
الجوار
deix
اوج
للرييس
بيمو
ابقي
ونشر
وجيه
tape
##راكز
لعلها
مختار
plu
سترك
يكلاشي
ورفيقي
##haled
قصه
medical
الاجمل
galo
نستحق
يروحوا
ma3n
ma3nd
المنافس
قبرك
vert
##7ach
يخلينا
الميزان
وهاذي
finalement
##али
اسيادك
jahmoum
appeler
اتفاقية
2al
cd
flam
fhm
سهم
مواهب
نبحث
그ᄅ
##طهور
##صاف
##ﻠﺔ
##alangan
العشا
عليم
رافع
ياااااا
##ahttps
##imou
##ههههههههههههه
##veaux
احضر
بعدهم
تقلو
sevi
##رضة
##قطعت
خيرهم
##chal
تفعيل
وقادر
ينعاد
ni3ma
تجاوب
##بهلل
##لفزيون
وصوت
راكو
mana3
ريسان
##تهمش
انهارده
##ills
makin
بولاد
بالمقابل
يغرد
##نبقى
عادات
##ليبات
##cesse
كلمت
بلدكم
3likoum
بيدون
فالمغرب
draham
قادمة
konti
مورايا
ميموار
kakak
بروحو
ptdrrrrr
ترحل
relation
##hadjer
يعيطو
الدولار
3raft
hus
jy
tass
бо
عزل
كوش
لشيء
مفه
هزم
ﻣﻌ
##faw
##hour
##wing
##なる
##ве
##يرون
والانت
##ahl
التونسية
lezem
شيعة
عموم
الزنا
تقاب
separ
##chalah
للافضل
المعاصي
##ساقط
trois
بالكورونا
كفاكم
t3ay
nasi
##نكة
caro
وهمي
فخامته
dialo
يطلبون
vict
jawab
غرامات
زواولة
chakib
appreci
كوميدي
브평방
cow
iq
loul
lwal
pend
tast
zon
ра
جالها
حوجي
كوارث
نحمد
وعبد
يحمد
✌✌
🥺💖
##شاف
##سح
##jes
##wane
##ﺮﺓ
##ба
انعدام
القذرة
الخضرة
فالسي
##عيشة
اسلم
##نونا
تبدو
الانوار
يشك
مولاها
وقليل
وصاحبي
شعل
وكثر
تستر
twt
تحتسب
medic
ليهود
kamla
للعرس
فوط
لفريق
##ساءل
راحتك
ptdd
معكاز
بالسعادة
ssam
mimpi
الوضعية
معتاز
شايفة
مدايرين
الكونت
tanto
يوفر
تاوعك
suffit
الاحباب
conversation
ودمعاته
7s
ase
ahahahaha
jiti
np
ozel
توسو
جود
كوف
وبيت
かり
##اينة
##مهما
##85
##کل
##اتور
انقل
الجيب
##ادی
##عددة
##عبلات
##اهده
يعاقب
leader
##شيك
متضامن
##وجود
##ikram
الطين
تبنى
يشر
condole
roger
الرغم
مستعج
اللذين
قلبنا
خليتها
يهون
##عترف
شكيب
الهروب
خطط
اياها
دخلني
hakka
harmon
الصفوف
اشتقنا
جالسه
عاجزة
كتبها
colon
الاوامر
ههههههههههههههههههه
communa
oldu
ظلما
##ثماني
طفول
الموجود
علاقتي
للزواج
الادمين
تيبازة
سويسرا
intellect
73
ahah
dino
ewa
ego
ثرو
زطلة
قطة
قضا
قوته
نبيه
يبل
يديو
🔴🔴
🙄😂
##f3
##سلمين
##دوم
##جزة
##िस
##ەر
##oual
##outa
مندير
انستا
##arfou
الحماس
##لكان
البصل
##imu
chta
اعماق
فالام
يحلف
احق
rejo
##عوديه
تقعدي
وبلاك
تمارس
ولذلك
لهن
محاينك
وقعد
تنج
يدع
weird
قلبت
مخن
المشاهير
للمع
prim
فتحي
bons
perform
الفيديوهات
اختاره
allow
##بداد
نعرفه
الرحمه
لجامعة
huge
dru
tfek
بروفي
smana
##lieu
mimo
ميمز
يستحقون
##صوير
##ۥۥۥۥ
ويحفظك
تقييم
مكتوبك
ادوات
لفترة
##رررررررررررررررر
vrm
faisait
manchester
soleil
##powied
bade
تبار
حذاء
زروال
طم
غزال
لفو
👍👍
##واريخ
##فلت
##ﷺصلﷺ
الايم
##التك
##ليني
##اعش
الحفلة
##elhom
التسيير
etudes
##دوز
##دوى
##hod
تتخذ
##oop
يشاهد
اتنا
تشم
##سكا
وحراير
web
رايها
##افيل
coco
خطرش
كمنتار
دوارة
##😭😭😭😭😭😭😭
preh
dart
u2066☺
يقدرني
comments
تنتخب
موسس
##يراث
moro
الورود
y9ol
camera
##قعدش
الاضافة
نكرهو
تڨول
يرضيك
صهيوني
اركاتزا
4000
avi
dort
gb
zara
اڨ
حفاظ
دفاقه
ضوك
عروس
فريك
لروح
जन
고
##هناك
##lr
##دكم
##ضرر
##ثناء
##2y
##まして
##😁😂
##🤲🏼
##اريا
انجب
المطالبة
##اييس
مااع
mait
الجليل
الشربة
##emu
الفكري
##ااو
##abt
##قيمين
تحبيه
وملي
اسراقه
وشغل
وجوز
يبطل
pourra
ينال
لبلا
الهريسة
تستغ
mno
minta
bran
دعوات
ويبكي
دجاجة
فخور
التسويق
يحكمها
anyway
عرضها
تخلع
してる
توفات
الفرنسيين
3arfa
propose
##funa
ثانوية
##يييييييييييييييي
3lya
ممثلة
الفوطو
foutre
رهبری
aise
برده
رقية
شاشة
صفا
ضياع
てした
##حني
##3eb
##جاجة
##79
##को
##arek
والشر
العروسة
السيف
التانية
##اهن
الدني
القاري
##etna
النمو
تحك
ومحب
رووف
hatta
استطع
الزاد
##زيان
kham
batt
##said
##khr
proches
3lihoum
الفيزياء
minimum
يغيب
kole
haki
عايشه
دعاة
دراهمو
##زوخ
works
بالحلال
يدخلوا
اصحابها
والصالحين
ديريها
التجمع
9albi
فماذا
نفهمك
dinesh
n9ra
معنوي
##🌹🌹🌹🌹
tmout
exams
حسناته
استثمار
الصحفيين
##virus
students
street
بالغربال
اخبروهم
pse
sas
sse
باعد
تضل
سابقة
صه
صبت
صناع
قميص
كوري
لرج
وروحي
پاس
어
😱😱
##شرو
##foud
##فط
##たよ
##خور
##シュ
##ına
##🇦🇪
##🙌🙌
المير
الموب
##mique
##ياا
بالبي
بالمو
بالضرب
ياقلبي
##emos
القار
##ويف
##داق
enak
يحلل
##اطفة
بسعر
##صلش
تخش
تخافي
بدء
كنترول
##طوة
diali
نشرو
##chez
وحاول
تسديد
داروا
tego
ital
dossi
نسجل
وهت
مانعرفش
حابه
والاستاذ
والعين
هذة
وارواح
صالحا
والحياة
دينكم
##vention
ptit
ibti
لطريق
##eeeee
فبراير
نحكيلك
olur
اليسار
##fatima
لمرتو
5ir
67
7ram
elim
glt
tma
willi
اﻻ
برة
بین
بسبة
بقتل
خيب
سادة
طارت
##رث
##شخص
##عكس
##fid
##hen
##hani
##9ed
##yab
##łe
##ارحم
فيزا
منير
##onia
المبت
المفسدين
##ستهم
##يدار
السردين
##اشين
##emy
تعالج
وتطلع
saoudi
اليم
##nej
##رتبة
##هوض
ميكونش
parfait
tune
بهذي
لبروف
nique
##فونات
##ترین
سببه
djal
##pac
term
termine
ندفع
wahid
##dule
التحريض
قبلو
الهدوء
تنافس
babe
particip
honneur
بالصلاة
intro
فالحياة
##ادوغ
##cinta
bkri
تحمست
دنیا
كنزتنا
لاحقا
citoyens
excellent
ftourek
alina
oq
yha
شير
شرش
طعن
غت
غطاء
كابت
وريح
##یار
##fn
##نيني
##فاش
##فنة
##2an
الالح
##اترة
انذار
##ايلك
materi
الحية
##eler
##eless
##اءه
devoir
##لكي
التواضع
الدال
الفانز
الصناعة
ايما
فالارض
ونجيب
وشرب
neces
تشغيل
وعل
وعاش
##سكسي
##ulte
وقفو
daoud
ba2a
cava
adl
imy
بانتلي
wallahi
يعرفش
##wira
خيالية
libra
لغاية
التعاون
ibn
وصلوا
هتلر
played
واقعي
mission
صديقك
توكلت
##شلونة
fatiha
العيباد
تركيز
مزاج
موالفة
ماقدرت
##cloud
communic
التصرفات
لوحدي
الاحتياجات
##ہيہ
ew
jibi
nrouh
yama
ملة
🥴🥴🥴
##بوصبع
##😍❤
##ﻤﺔ
##يرحم
والشيخ
الاوا
لاسراييل
وادو
##itent
##orar
##اسد
الفول
الخلاصة
##سمحش
##فره
استجابة
استيقظ
بابي
لقلبك
##bache
بهل
تجبر
kaci
وهك
##hahahah
##faire
prennent
##ولوية
بطريقه
نوره
وفرج
thats
meskin
فعلها
darna
بالكامل
kamen
وكيما
اثارة
ماشكيتش
finan
carrement
2002
الروس
عاجز
وضعي
remp
تعطينا
matchs
يمثلني
snow
ننساو
البنزين
sauce
reseau
زوينة
مايكفي
passage
ambiance
dhar
iالله
uli
اديها
قمي
😤😤
##wia
##wali
##tina
##ثنا
##فيا
##ﻌﺪ
##ली
##ليق
الاحتك
##mich
##ومار
##ately
القعدة
للدين
اخرا
##منه
اعص
ابها
يحك
ماتست
تمكن
تمديد
بتج
حساس
يبق
محاكمة
اجبار
sofia
عبدة
وحاب
لبنادم
والموم
podc
وكله
البيع
ندى
دايرا
تعلمي
للتق
verra
رجلها
ختيتو
تقدرين
dirha
مشكلتي
azbi
زينب
فخورة
simp
refuse
ويخليك
جازت
retrouve
ریاست
بالصدفة
unfollow
picture
memoire
sebelum
condoleances
74
تالم
صوب
كوزينة
مغم
مذهب
هزي
ورى
ﺇﻟ
##mun
##zr
##ging
##くり
##ﺮﻭ
منكر
##esta
والري
الحوش
السيل
السارق
الخاس
##بعها
behi
وعافي
مولاك
parte
arkad
conference
وقلبك
ينقل
ديريه
مخالفة
##وارج
بابك
فتاح
apne
الضحى
برلم
kayt
toumi
##عرفيش
alia
يمكنه
pengen
##lard
drk
depan
🇩🇿❤
اعطيتك
accue
مشكلتنا
قريتي
##madjid
##عنديش
sirf
##진
constitution
hnaya
سفارة
step
ننساه
##oooooooooooooooo
فارغين
##😳😳😳😳
manifestation
كاذبة
الادوار
وموتى
متفاهمين
robbie
3raf
bøu
dow
hik
nut
nedi
tsh
ка
حيي
خوتنا
سنس
لرو
لضرب
نوي
##هال
##cles
##cast
##gay
##خار
##おお
##주
##っこ
##🏃🏻
##🙂💔
##۰۰
والدعاء
##اعب
mafhem
القرد
الفلاحة
##ently
child
enno
مشفت
##فسر
##olhom
##بعك
نتاج
##هوري
reel
يسكنه
تخليها
اذاكر
تموتو
نشعر
وليش
يندم
مجيب
لازملك
بمكان
hoga
نبض
بغى
سعدي
والعافيه
rakoum
والشتم
##راجعة
hhhhhhhhhhhhhh
accent
##ثيق
azul
انقلب
الاغنياء
تخلطت
turk
وفرنسا
ماعرفت
degoute
نتفكرها
تعجبك
ccp
livro
credit
seems
nangis
brou
dara
l7al
се
اغير
بفرح
جنت
صوا
لرجال
وواش
يدم
😪😪
##غرت
##may
##zaki
##kit
##09
##جرام
##スタ
منحط
##امج
ماهذا
الاضحى
بالصور
بالماضي
بالهدرة
##ركش
البرق
##اكر
الداهوم
##سبان
##ural
ايامي
ميع
##رقص
تبقاي
soh
ينحو
تنمية
##تموهم
ramene
المسار
الذراري
نصهم
تدخلو
ماليه
اغرب
merda
##كوست
عقيد
barre
abdess
masque
اختكم
kore
جای
رجعي
##iiiiiii
يقدروا
ولمن
##خذنا
tambem
التقاعد
يسبق
حاكمة
تخيلوا
origine
ويخفف
علابالهم
عريضة
##altet
सरकार
##وســـلمﷺوبارك
aiment
dd
jika
zb
ثري
زوين
سالب
قشي
نادرة
##ملة
##lkom
##ruit
##ga3
##کن
##한
##ות
##ﻠﻲ
makt
##itations
##حداث
الشهادات
التراث
امية
##شيال
chnou
toda
مسكن
احاديث
اسات
##ييع
وجيب
اشربي
بدور
chafu
مولاه
thr
مجرمين
نصوم
المشرف
##طباع
cheba
المعنية
رسالتي
sahi
##be3
اختبارات
حلوف
3alay
يشوفوا
##زهى
نكسر
##جيبش
كاظم
ساكنة
ماكاين
جمالها
كشعب
نسيتي
عرضه
فالحومة
لولاية
btsarmy
##شششش
كوكا
u0001f971
الفضايح
population
happened
##fitri
حافز
السجود
باكمله
platform
الجنازة
الرهج
loool
lynda
360
8h
iri
ldar
noo
nøu
ora
محك
##نعو
##ظري
##のお
##га
##هادو
##arr
العاشرة
##ttah
##تيجه
##adir
##زاه
الدود
leic
وينا
تحلف
مسخ
ونموت
mobile
##ــت
##عوام
وباذن
تشتاق
chabin
تمثي
diya
prise
يديرولك
##وصفة
المعجزات
تحتها
comptes
3aj
نطيبو
الشرط
حطم
ابتلاع
##rates
ردها
نهز
##طيحوش
##😅😅😅😅
تضم
يعملوا
دركا
حاقد
البدنية
supprime
نحكيو
3endek
فوزية
deserve
enerve
represente
تخيلو
رافضون
ۥۥۥۥ
mte3
success
mzy
tedi
برات
حلقه
شياطين
غات
وارج
राज
##سني
##سورة
##zali
##b9a
##صفة
##ثها
##че
##الاخ
ماخرج
ليلها
ياالله
##atou
##اشه
البنان
تعر
quero
##ilfitri
chourouk
##قتني
ومحتاج
فالاخير
بعدد
بعلم
##زيغ
بايرة
بدايه
arsen
suit
sucre
مستجابة
مبني
تجنب
وصحبتي
وخليها
pll
لايق
شرذمة
الاعذار
amie
دمار
سامعين
تزرع
taraw
بالشكل
برحمة
نجيبلك
تجعلنا
مسيحي
excited
مسموح
بالطريقة
ukuthi
وحقوق
تشتكي
الدوحة
الوسايل
control
przez
##مبروك
emploi
forever
seddik
iba
lor
sme
sghar
tere
uku
اهاب
بخلي
حجا
زاوية
ظلمة
##fm
##yim
##💥💥
##بيلي
المنام
المسيلة
##ابني
العاقل
الجلوس
يازح
الكلي
الكاملة
الكسرة
الكراهية
يعالج
الخانة
ويثبت
alsh
وتعيش
اعلاه
##وتين
##ssab
lion
jean
بنش
khalas
لكاس
##ansi
##طرطق
راحه
boudra
المسالة
لحسن
يطبل
provo
تدوم
ستن
وكثير
يرون
نعرفوا
##zzy
penal
yahya
7atta
الملكية
130
اشوفها
تتكلمون
mknch
wakil
revendi
فرجت
بوجمعة
conscience
labas
nrm
##imohamed
الشكوى
قاطو
الطرقات
reading
montrer
الباطن
ax
aun
iran
jl
sham
sima
خوت
رقيق
سوب
علنا
عابر
كى
هانية
هجر
وقطر
##ابية
##مص
##ءان
##خها
المتش
##edom
##ابرة
والبي
الحنية
##نيم
##فيطي
الشور
التمي
الكرب
للبيت
##منك
##وفان
ويولي
chna
enc
روضه
ونب
صحافي
استفاد
ماتكون
تخلق
مورا
مدع
نحرق
اجلك
اجازة
taff
concent
##anez
cau
مقبرة
لعش
بصلة
بطلب
makasih
company
دخلها
حبيبته
لخط
الاشجار
##وووور
البارد
جزر
وطنهم
مختص
جهود
وضعه
وتوكل
وثانيا
eviter
jalan
يكمن
نافذة
ننساها
فراقها
الفنانة
لقطات
palestini
attaque
islamistes
وارزقنا
lebnen
ذنوبك
friday
sociaux
aqu
hp
ثقه
جاج
جواك
خضر
ذهاب
سطوري
ضاق
ضحى
لارض
##مز
##تقد
##fti
##سهم
##cn
##نالك
##ـام
##يرها
##اتوري
##inin
الابي
معافى
الحريات
##rap
##اشهر
الشغ
##عدون
##برز
##abah
##ekk
وتفهم
وتضحك
saud
قالتها
نترك
نتنفس
واشوف
فرحه
taxi
##سانه
توضح
kich
تغت
نقصد
نسهر
شعورك
مخدرات
لتغيير
عندكش
نجو
##قالات
باسك
minou
##فاقيات
قصيدة
يغسلو
والحديث
المناضل
kuna
فرحتي
بداخلك
وهمية
القدام
موته
bahi
العقاب
قتلني
mli7
يغفرلك
سخونة
wouldn
hedha
طاحو
na3ref
فالدزاير
しいてす
يملكون
envoye
يعافينا
منصبه
leaders
character
##covery
بزرگ
ecrire
lesbian
3ak
53
alem
eربي
mq
tiene
wb
zas
تحدد
ثروات
حوست
طاكوس
👍👍👍
##dadi
##mna
##mout
##فعو
##リラ
##mi3
العوض
##isee
بالرد
السوها
السابع
متهم
هوه
##اليم
##ikha
استودع
##كانو
تخبر
##andir
بتحبه
نحكيلكم
##اتيسري
لكاش
دارتها
الثوار
مبق
ارسنال
المشاهدة
والمج
مزالهم
keba
مطمين
رجعوا
كفانا
awl
وابعد
قبض
112
worst
التعادل
hyper
target
شدن
وقالوا
طويله
الورق
واقعية
تفسد
actuellement
ساحلي
tounsi
responsables
سراقين
mujhe
lhal
ov
pek
saba
til
حطة
زبان
سابع
سواه
صدم
كافية
لالة
ماية
مـا
يشيل
मो
##متك
##utions
##ضون
##yel
##ظك
##ास
##ів
##ناز
##ايص
##lage
بالقدر
الجس
السابعة
الصحبة
ويصلح
بيل
وانته
شيكا
##وووك
ميست
beha
تباني
##ردن
##معن
بتر
بشريه
bouras
الثامن
##khlo
مايجي
شعرت
للاخر
print
##فقير
##عليها
orta
هدفهم
بالمك
plas
viv
لعبنا
zouz
ضربه
bestie
الحمقى
صباع
ذاكرة
لحماية
الحلوى
russ
وحدوخر
yannis
center
يحاولون
بالاخص
radiob
تبهليل
وقيام
##すきる
تحديدا
محظوظ
9t
cst
ij
mmed
تميل
دین
قدو
كرك
يراه
なんか
##قصة
##صرو
##मी
##ﺎﺕ
##✋🏻
##भक
فيدي
ماخلي
والدو
الاحكام
العفن
واصلح
##تيفي
ياوجه
الدواعش
chbik
##طيين
ابى
يتواصل
استمع
##عوبات
لوحة
##رضوا
##زيو
اشاهد
##ands
مدف
الغايب
##رامية
نحطو
rattra
عبود
##وزة
مالو
akther
imo
باننا
##بطاح
keti
رسوم
gotta
male
##ارجور
sempre
يمكنني
مسلما
نكومونتي
##phie
المطلقة
جمالك
محدودة
المملكه
posted
parlez
pensee
essayer
##🙏🙏🙏
بثمن
المدرسه
الصداع
طاقم
futur
تكرهو
مفهمت
فاصبح
spotify
الجبناء
visage
bjp
##facebook
الزرقاء
arkadas
radioba3
dance
dpt
ohh
pant
اظهر
رده
زاير
شال
شابه
لاري
يميل
##بادي
##وقي
##sur
##gation
##ﻮﻡ
والابت
##ttar
##radj
##ithem
الجايه
##atre
املاك
الدخل
الفع
chant
##قتصاد
refer
وشوفي
become
تقبلي
وجبات
ديكور
😂😂💔
رمضانية
##راركة
##سلحة
kiff
تصميم
مايصير
مقياس
تغريده
المنش
كنك
guide
احبهم
lyna
بالمختصر
وراس
بوتف
باعوا
عاجبني
وجوده
ثقتي
##عارف
سرقو
dikalangan
يتكرر
ويعافيهم
##fully
مذاک
تزعف
ghanili
يفوتو
cnx
محاضرة
khadija
##مينيست
بیشتر
arsenal
fous
fly
jma3
o5
zet
بريق
سخط
فانية
مفض
نفعل
يوكل
ڨال
こんな
##داي
##yass
##たの
##ـون
##ھم
##ュー
الضع
##encia
والدك
معدن
##ather
الشق
كلك
تعك
الوعود
النبو
ايس
##cela
تتنفس
موحال
died
وسلامة
##ghel
يقرو
بشرف
مايعرفوش
بليدة
##fif
نجمع
##روفه
وفات
acık
resume
والعكس
fo9
ملحو
assume
##lemme
لبلادك
تسمعو
رايحا
عبادتك
ba3oucha
نوضح
باموال
باستمرار
فالكوزينة
يصلون
يهنيهم
البحيرة
##🤮🤮🤮🤮
الخنزير
radioba3oucha
eye
oxy
ww
جنية
ننسا
نذكر
هاااا
##kare
##cta
##rali
##9ol
##خدع
##おります
##ше
فيفا
منزيدش
انوش
المدافع
##راعات
الافلان
واجعله
الحشيش
##rech
##ako
الفلم
الفكره
يعافيه
##ويهم
##room
يتر
ouz
ونقه
me3
تقوى
تبغو
اللهمﷺصلﷺ
اتقو
تشفى
##اربه
كنتش
desh
auch
بلعي
##toires
ينور
##khs
الرياح
علموني
##ماءها
aye
والاحت
resid
mashallah
##قصير
وارض
apple
مرتبة
فاتورة
##حملش
##هذاك
ويتم
nahder
##したい
ماعندناش
يطلقو
##ایی
voile
بودن
##tics
rappeur
turn
golt
سيبون
الحوثيين
مقصودة
خبيثة
قااع
slow
diss
rbk
اسيل
خنشلة
صيا
كهول
هواء
ﻛﻞ
##four
##vd
##قعه
##9ch
##yek
##ים
##کان
##اندو
##بيون
##ونوبيل
المطب
مابت
##aler
العلام
الحكي
##تيبة
عنب
بالبر
##amra
##يبضة
legal
##ويو
ويسب
ويحمي
ومشي
حتة
##بعون
ونوض
megh
تتخرج
تقسم
وجدة
##جبال
محلها
isi
يجاوب
dure
nihad
نسى
نسامح
تدبير
الهدية
المشرق
المتظاهرين
وفاق
دوامة
contente
joie
##mouch
zaama
##حلل
دولتنا
موتمر
والصحة
beaute
coloni
ياحبيبي
قامو
فطنت
مهابل
##kinga
مشغولا
عريان
المقدس
lwa9t
medias
espece
martyrs
leicester
tst
تارك
تھا
ذاتي
ذنبي
سقف
شـ
شادة
شفيت
طلال
لولين
ﻟﻲ
##bass
##ظاهرات
##پی
##😛😛
##ارتك
منبر
المبالغ
##ared
comba
##زاحم
تعويض
اوطان
للفقراء
##ilna
##ssem
##inees
وشلون
تخبي
##هره
وعذاب
##chaima
ولين
##jaz
رايتم
kala
coffee
truth
##doh
نفقد
ort
المتواضع
mata3
الابل
ودوك
وارت
##انتا
t3aw
تجيبي
قدامنا
##erif
فايس
spor
جبناء
ضربو
اولاده
يوفقنا
باعلى
تخدمو
rempla
حايرة
themanis
لاخيه
فطرت
جمهورك
الطالبات
فاعف
النصايح
مروة
ايمانك
يجازيهم
مستقبلك
يدافعون
امازيغي
بعبارة
اطلالة
وامثالك
securite
چیزی
##ستقرام
##zaidilfitri
themaniszaidilfitri
3ini
aah
ire
latif
mouk
møu
nani
pitie
whe
اجعلها
عديم
عاهرة
لسي
وجيش
🤲❤
##كامل
##jen
##jut
##ننا
##3ref
##की
##ينش
انفع
##ونى
المفتاح
##يابي
##elou
رای
الجياحة
##lement
الكونك
للشر
النواحي
اعاده
يتبرع
oukh
اكراد
بساطه
وشها
تقصف
وبالم
##dai
ديديكاس
##وشل
بلخف
وحيدا
##سلط
نسنا
belles
##lamine
وكذب
الشياتين
##بطولة
المعجب
yea
الايدي
مواعيد
نمشو
##barki
لجناس
يخدمها
##صدقة
110
##elloul
وتحكي
رزقهم
##ظيما
متوحش
given
gizli
خلفية
يحكيو
رفدت
وبالتوفيق
defendre
ذكية
ameen
effort
جسمي
silence
نافعا
حطيتني
mandir
##ریب
طايرات
rencontre
cuk
dry
gone
hub
iو
lake
اگ
جنو
جنسي
زريعة
سوناطراك
ضريبة
عزم
غيبة
قرم
نديه
##اغي
##nellement
##wna
##cur
##bri
##👻👻
الدينا
انفي
الملاح
##ensa
الاعمار
##ومبرة
الحزاير
ياحس
##اشية
##قولنا
##قولوا
قالب
اسكتي
nee
اصرف
خيري
diab
##مدت
لكبيرة
يمني
caf
benk
الهول
حبينا
##ديدين
merabet
والمه
فتنه
ودب
##قبلش
embar
masha
خرنسا
##3bou
فكريا
couvre
بعيده
##ولاية
قبلة
nasri
الشعار
تقولين
الاحتفال
watan
واهلك
للدفاع
pensez
اوملات
ايدير
teams
visite
##plus
تمنراست
نعاودو
كونيك
individ
قتلتني
رعاية
نداره
surprise
abdulrahman
##ehyung
9hab
dt
dkhel
een
foo
nna
rang
tps
توش
تغل
سجد
طح
مذه
هته
하
##غاني
##das
##wla
##cins
##قسو
##نالكش
##طحو
##たった
##خات
##저
لاث
##تيلها
السوي
##رفته
##برر
ley
وتز
مشاهير
ونقص
rebe
##ييف
وبالا
ilyas
تخمي
بدت
abt
khadra
سيك
اجازه
daily
دارم
لباجة
حبسي
##الحل
##عتكم
menos
والمراة
lovely
ستغفر
##موهم
ahna
pai
ريیس
كمشة
تروری
البيية
مغاربة
autom
##فكري
عرفو
ﺍﻟﺼ
kodwa
صالحين
بالكلمة
طيحت
halima
sports
##upart
hhhhhhhhhhhhhhh
فسوف
الروسي
الطريقه
كبرى
يهمه
djamila
3aych
lalu
princess
فداك
جسدي
nweli
وتمشي
egypt
killed
مخدوم
الميزانية
توسوست
86
curi
i7
iche
ма
تضيق
رميهم
زيه
لولو
وذهب
ورود
يروج
ﺍﻧ
##عسلوج
##eer
##wards
##rfo
##yri
##간
##これ
##inem
##oncer
##enas
##ديلي
العلا
##isent
##رجعو
##اهو
leve
متقد
مشرو
ino
##رتب
##وسك
تقب
لوطو
قدس
تفاصي
سيح
يطفي
الاسته
hob
المعقول
زيزو
باسمه
الظلمة
masak
جداا
والسعودية
والسخرية
العلماني
crb
##ないと
الفلس
يهدروا
شرفاء
nekkaz
prophete
وجعني
kahina
familia
توقعت
##mahrez
catastro
hahahahahaha
يربحو
باكملها
الخضراء
##かわいい
ناهيك
fame
gender
tgoli
vem
yedi
zh
اوافق
شاوي
صوف
طيف
لە
##いつ
##야
##сто
##にも
##onge
ماص
واكتب
يااخ
السطح
البغل
القارة
القذر
اوجه
للنق
يعانون
##افح
اكسيد
##خلوا
haute
هينا
يشم
يشكل
##quet
شوطين
اتقدم
باقل
اصمت
فرنس
ولقد
وحداخر
وسوء
محالة
tax
تسهر
حققت
بحسن
##estre
شخصيته
للمخ
عبدالم
prima
bonnes
يفشل
##الاستاذ
سمب
سموها
فهمتو
##جملة
habite
##iiiiir
roumaissa
انسحاب
3andak
accident
تنازل
البعير
partici
الستار
كاتبه
entire
saleh
entao
potes
##🤲🏻🤲🏻
histori
cadeaux
مشاعري
اعيننا
tlemcen
iت
iيا
lfa
nq
pus
tess
تزين
حلاقة
غاع
لالجيري
مرش
##يار
##wu
##vh
##ديني
##yya
##си
##اننا
##اندا
##oussi
انجبت
الموهبة
##lag
والبعض
##رودة
السني
##قيف
##قيقات
altern
ايماجيني
اعوام
وانها
##هههههههههههههه
فالهدرة
##ibles
##inee
وشكر
##hion
bei
ماتق
تخلو
بلط
rafa
تسحر
تسخن
suic
##cious
اقناع
الارت
مصيب
impa
apart
luna
يجيبه
temen
hua
entraine
وهذاك
cris
زينو
momo
knows
ناقصه
عيشك
بالدراهم
وفقكم
الاذى
تابعوني
khaldi
nawe
nawal
طفلا
belaid
djilali
دلالة
هاشم
دماغه
يبحثون
كيتمان
تهاجم
عاطفي
الحشوة
الانسحاب
الجنوبية
كاذب
النبوي
بوضياف
domaine
ڨالوبي
baki
nte
rhi
sade
yani
بناس
باجر
جالو
حمي
عة
عظام
عريس
لني
نان
نعبر
ووضع
٩رمضان
ना
लोग
💕💕
##ners
##uck
##ually
##rm
الايد
منانوك
مابعد
##chet
maana
##orang
##tiques
الكامل
الكيل
وتقد
وانهم
##كلنا
##وووت
##ols
يتف
يتصور
ونقعد
احص
halal
بلاغ
تبطل
بعينك
##osci
بنهار
اشجع
وعشان
فرار
وحدين
##deh
تسعد
وليبيا
الرح
وينكم
simi
ستصبح
##شرط
الضرو
وفض
acte
##pop
اعتذ
رجلو
بالكذب
rou7
noussa
urgent
وضوح
##قسيم
فاشهد
القانونية
قانونية
للوصول
anymore
قضيه
denia
بذوق
بالخارج
##💪💪💪💪
lha9
الارهابيين
الشكارة
middle
ensuite
ترقدي
##abdallah
مربوط
الوداع
##kless
##ba3d
##ませんか
حاضرة
##なくて
maymknch
بنغازي
موبيليس
bam
elah
gimana
kana
s2
بسمع
حنى
زاكي
صافا
عشي
غول
نامت
يانا
##سلها
##lish
##خدمة
##erte
##ريطة
##ttou
##rache
##روفيل
ياوي
##ربا
البالو
امانه
الصيني
متاخرة
وتفر
chre
ايك
اعني
ومال
يتلاق
اصبت
مدينه
محاكم
لماكلة
##anich
تنفس
بركاته
benda
الاخلاص
doctor
نسلم
نسيتها
heya
يطعن
وانتوا
souv
##ذبش
المعلمين
المعريفة
🤣🤣🤣🤣🤣🤣🤣🤣🤣🤣🤣
فانتم
mesti
مغلوب
##post
##كملش
##لوكيه
طبقة
zegh
للعاصمة
دمك
متوسطة
ينافس
الولادة
رقابة
messages
مسيول
##سسس
aimer
جازان
افعالك
moussaoui
يكرهو
fitna
وشبابها
depois
والخطايا
ronaldo
7ass
a9ra
dre
fasse
hj
mne
nini
pang
جيك
خمي
سافر
قاسية
وزيدي
💜💜
##por
##pung
##⠀⠀
##ليدة
##enya
##ark
معقوله
##leurs
##atni
التوان
##حبين
تعز
##يبان
الصب
##كرام
النجم
##اليها
reun
لموا
##اوض
##ييق
الانجلي
##رضين
##iiin
chaft
##ضيل
abord
الغدر
يقاتل
تنمر
te7
مقصر
حبوا
##متر
plupart
للاساتذة
##fais
loved
imed
حالكم
ramadanmubarak
المغوار
boa
بهاء
بنتهم
حكومه
الراف
ودولة
لاتع
فكاهي
لعبتها
الانتصار
حكمك
brave
تخرجنا
للتس
لشراء
صديقه
depla
سببها
بوتين
##ددهم
كتبتها
partis
معترف
##ाना
حكايتو
##younes
اطلقوا
سلاما
المقدمة
رزقي
document
لطيفة
المنهج
3aref
aus
hdar
jm
رءيس
شاري
شايب
وطب
يوقع
けて
ﻣﻨ
##غلق
##مست
##دلاع
##جرت
##خيم
##ڨان
##▒▒
##انتم
##بيحة
واسراييل
بالات
devenir
##سيكي
##اكة
##نتم
متلق
sacre
##neya
toxic
قالوها
اسفة
##هينا
الزعل
##taj
يسحب
افريقي
diye
##وهن
مايظهر
الاسوء
##بتكم
ومافي
##cket
coba
بمنا
milieu
apo
عقلها
##ttez
sahla
وكلها
دخلي
بالمق
##بالاك
ﺍﻟﻜ
blast
بالعاصمة
زحاف
harkless
##box
قرون
kuat
tfk
بسيطه
ووحدة
حقوقها
election
الفايزين
ميدير
سفينة
m9wda
mdddr
ﺍﻟﻠﻬﻢ
ياااااارب
なにわ
mwaswes
blh
bakh
joke
msa
بريد
تران
ديتو
درجه
زيي
نطي
نافع
##ering
##لاتو
الاعب
عنهما
##ra7
##لكل
##عدوا
البهايم
تعق
الصع
##idade
##داة
ويعمل
وتحس
مسويه
##ried
تنظم
بينت
دارلي
تجتمع
belha
لحوم
حبكم
##essi
exter
حالتها
##zew
الضريبة
مغلق
appart
اثرت
الموامرة
مامن
shak
تبعت
ziad
بالسياسة
doula
aaj
##からの
مونديال
الربع
3ndna
سكران
منعرفوش
حليت
میکنم
عقده
yemak
مبردع
chemin
pdf
medecins
administ
طليبة
occupe
يسامحك
التهميش
الرغبة
لتركيا
العثمانية
واحيانا
glad
lux
ببي
زرو
ستك
كوز
نرفع
وغي
وتوفيق
يني
يضيق
ﻟﻴ
ﻣﺤ
##غتو
##sb
##قمة
##نكر
##ﺴﺘ
##جاية
##😨😨
##مادي
##ورتي
الحاله
##زاوي
وتنس
وانتهى
ابار
روب
احرق
##usia
يخيب
تتقدم
تتجاوز
##ردت
seg
hade
افض
audio
ربوع
soyez
بكا
الثروة
مرقة
تجيه
بحساب
##وانة
##جرين
##faite
ستان
تستغرب
hoy
sahara
زيزي
ودور
الاسلاميه
مهول
كاشير
brit
ارحمنا
personnal
##lated
abdelhadi
aray
ويسعدك
ويسكنهم
ضربات
فسد
الروتين
dahmane
المطاف
kaynin
aala
ثلاثه
ya3ti
ياتيك
رضاك
التقنية
passion
الصهيونية
لذالك
موقفك
yousfi
benaissa
البرتغال
##99999999
retrouver
اهاليهم
الشواذ
داشته
3el
dya
dho
eid
knew
lrt
nrou
بقولك
نحك
يدمر
##nay
##uda
##zine
##sek
##vit
##ええ
##ڨار
##😭💔
##ﻤﺪ
##ﻣﺎ
منف
اناني
انسو
الموال
المعدة
##enc
##ريبي
##ماح
معلمة
ياال
##ودات
الصياد
##وفاء
متص
الوك
مشعل
##magne
ومسلم
اكاديمي
اسح
##hii
##تهن
illi
ماتزيدش
##زينا
اشتب
اصيب
الغرور
تفارق
لقاها
##jala
تنجم
roza
مبال
tej
anais
##ازر
##فقون
تعرفني
boom
##witter
والحسد
brav
العمى
2005
يدخلون
يزرع
الملكة
اداة
سورية
##jouh
معيار
مظاهر
والاخت
بثلاث
sakta
مومبغ
legit
mokhtari
lbareh
السلفية
وداعا
beauty
اللهمﷺصلﷺوســـلمﷺوبارك
89
kans
rib
ski
writ
zna
جاتو
حة
دوس
ضرر
عباره
قنات
قطيع
لجي
لفظ
आज
🙈🙈
##rh
##ثو
##فول
##جني
##💪🏼
##🤷♂
##ولوار
##رافيك
الاذن
##ورز
بالشي
البادي
##abel
النهب
فالحبس
ونولي
moche
moste
لمق
##اوبك
تبرا
seper
##ghit
عبالي
capt
ارخص
##ازل
french
يصف
منافسة
نخطي
المتقدمة
ayad
ترن
صدره
vecu
عرفتهم
##ساحة
هذول
خلدون
##dred
يقدركم
بناتي
afin
##سابق
nouna
جيبه
حاسه
bayn
geo
opti
تواجد
wifi
المباراه
الملايير
خايبة
##نصلية
y9olo
principe
كولشي
rendez
ياااه
abderrahim
فالباك
choufou
kangmas
راضيين
legend
completement
يبدلو
voulait
التاسعة
lounes
digital
الشافعي
setiap
aانا
gy
kasi
lass
ona
taba
woh
بلة
بیر
ذاه
شدو
صلو
فقل
قـ
مبل
ملوش
وذن
😔💔
##dri
##ضايق
##فلين
##すこ
##❣❣
##ﺪﺭ
##😰😰
##enza
ماهر
والظ
والفقر
لافي
##ادت
الساعات
##liwa
الشجر
للرد
وتجاوز
##بلنا
مشايخ
ابعت
elhouda
ميواه
استي
تتالم
تتعدى
اتعود
مدلي
##خرط
ta9ra
ولية
boum
اقراو
ادريس
وخويا
##متكم
prblm
لتونس
لتدمير
نعجز
عقلو
atam
شوفة
##jeh
خدايم
##بيبتي
ايامنا
لعبو
u200d♀🤦🏻
##تبون
sabri
منتجات
lmak
##حسش
مراعاة
المفتو
##شتري
##cred
skrg
معندها
واهلا
واهله
elie
امثالكم
speed
ادخلوا
صابرة
صابرين
تدمر
عرسي
يخليهالي
woman
اروبا
zawali
القمامة
##ھھھھ
الاكسجين
ﺳﻴﻐﻴﺮ
policy
indonesia
iha
ming
pv
zmi
بجي
جدران
خولة
رحب
😳😳
##pc
##جدي
##الجة
##inet
##inde
##lati
والاعت
العظ
الجوز
الجراد
التوس
البرسا
##اهيم
اوضاع
الكوليرا
للغة
الخفاء
ente
ايناس
يتصرف
مسع
##inge
يخطف
تتقبل
اتهام
وعرض
موخ
khrj
فرما
يستوعب
نقلهم
biasa
كونان
pok
##وصف
نفخ
##مينان
هدفه
gosto
بوقت
صدورنا
##gnes
ينتصر
##dren
ngom
halo
المنتظر
نهبل
اصحابه
geor
t9oli
jijel
elik
نسيب
تنسوا
شريفة
سرقوا
بيبقى
فصاحة
صابون
##ала
يتحدثون
##ーーーー
🤣🤣🤣🤣🤣🤣🤣🤣
ftorkom
شوربة
jumpa
الخطوة
فحياتك
discussion
الايطالي
المخلصين
wszyst
4h
9h
aال
zwaj
بتوفيق
خلت
دومون
قير
قنبلة
نريفيزي
وفل
گي
जो
सत
##يقول
##kf
##wni
##bul
##صبة
##جمال
##🙏🏽
##ﻭﺍ
##اتلك
منض
ماط
maitre
##adam
الباز
البصري
الفقد
الفخر
الخنا
اليمنى
تبوك
الانحطاط
اشفها
يقلو
##يشن
دارد
المساب
مقهور
الاخونج
doa
روحانی
الارزاق
يصفر
meno
##وانه
##esses
وزيرا
الاحاديث
pause
عطوني
رحماني
##isson
خرجتي
الناجح
resist
##ftch
3af
awy
حكمتني
دايرها
نظرات
واسكنهم
طبطب
للعراق
yahder
تلح
حرقت
gracias
لقدام
والكذب
وعنده
يهمنا
التفاهات
معتز
سبعيني
ظهره
nchalh
following
##وامع
يشبهك
اعمق
جوزت
##protest
raciste
ينصركم
شواكر
vrmt
الخبيثة
والاسلامية
اوقفوا
بزاااااف
5k
9ed
polo
vard
تطي
فواد
مطي
هروب
يرش
비
ﺩﺍ
##غاء
##nina
##زء
##49
##نامه
##oume
##همك
المحم
##رای
والحم
##ياخي
##اعقة
maja
##elek
##itek
##amba
##رجون
lait
##اسك
اوضح
الفراعنة
quar
##abad
savez
##iaa
ابري
قالولها
الزطشي
يخمو
liga
بدن
اهرب
بتصرف
يقابل
مستغرب
مرر
شكلهم
##3af
اغلاق
poser
للاحت
وزد
الاحزان
##رايق
##ذبهم
فانهم
عدوك
هاذوا
plait
##اااار
##diri
يمكنهم
سنن
ويعاود
خدمتي
nadjet
metro
خساره
كشخص
films
ماعندنا
droite
ارجوا
bikom
creer
##hahahahahahahaha
bakri
ryma
حليمة
hkay
##kmh
##🤣😂🤣😂🤣😂🤣😂
بنكهة
marocaine
tinha
يمسح
الاستثمار
dc
hka
iste
kese
باري
ذرا
سلع
سنع
صا
قولا
مفرح
هلبا
وسبب
٩٠
##l9
##ايده
##ريهم
##راقة
##لمن
##rebi
##rama
##atek
##سيط
القو
القطر
للبي
اعطيك
لمج
وباش
تشاو
اشر
khouloud
فرمان
##chah
##صراتلي
لكحل
##bach
تسد
boule
nif
نصبح
الهناء
##سطاء
##gua
وزيادة
يحفظلك
هدشي
riche
تعبك
المصطلحات
جدول
لاعادة
خالية
الجامعيين
##djou
canon
basah
والحرية
avion
العلمانيه
التحكم
crime
ygoul
yahdina
الاقليم
ماكياج
decid
والكثير
ووقت
delire
يهمهم
تنسو
عشرتك
seeing
arriere
بورتو
تتحول
vision
princip
بكرى
##ени
##💕💕💕💕
الاربعين
بيوتهم
رامز
النقود
تتخايل
الكوكايين
disait
لهيك
##ツイート
##누나
7ak
aik
aالله
cik
cate
iv
kri
kito
m2
вы
اومن
تاش
جيا
خی
شيا
ضابط
قويا
لسل
وولد
ڨو
گا
अब
##یح
##ملكة
##louf
##んの
##ід
##😻😻
##ھر
##ﺒﻴ
##ليمة
ماعليه
والهد
والامن
العبارات
maak
الحنة
الحاص
الحميز
بالاول
##ادين
##lili
##akch
##اسل
##اسمع
للرجل
##etli
وانش
فالبحر
module
لموت
ميحبوش
ماتخلي
شوه
تشفي
##سكة
فرينة
##صرها
محش
تفوووو
نشك
سيع
تغلب
##مرمد
مكالاه
nora
##شرون
raby
وفك
نبقا
سمية
الايات
ﺍﻟﺨ
##viser
##قبض
نظره
اثنان
##صيان
انساني
الوحيده
giving
عساس
السرور
bilang
قضايية
##❤❤❤❤❤
المكياج
عهدناك
sidahmed
صادقا
سطاتي
princi
wlit
publication
النسخة
ضرورة
##んてすか
영웅이
58yas
streaming
quartier
فاحفظهم
کويی
واطفالها
영웅이누나
2m
2k
flemme
shal
بحمد
رووو
طروا
عور
ملهاش
نهي
گوش
##kak
##kne
##ضف
##gli
##🖕🖕
##ouis
انز
الموك
##ولناش
العلاقه
الحجة
##فيذي
##يدر
ولاء
البته
##شيط
##افرين
وتصبح
النسب
envir
##diya
نتاكد
نتمنا
تتنا
chaimaa
ther
dip
##mehdi
محلية
##jaj
sua
حقايق
mare
benali
كتابي
اغتيال
للاس
نخليه
تاكلها
allahu
meskina
اعتقاد
byc
رياسية
interesse
اذى
تراكم
نهى
kifh
المهزلة
##gging
demon
سهله
التطعيم
##قاطعة
تذكير
terroriste
3bed
غانم
متابعه
التقليدية
##ション
هالكلام
تدهور
soalnya
comportement
cb
lima
tchi
wissam
zr
اااااا
تاهل
جني
سوره
فديو
لقدر
هوي
وقط
گی
😀😀
##مته
##kia
##قلها
##ضرش
##خلا
فيش
منم
الملع
الميادين
ماكت
maill
عنو
##elma
السبيطار
##orma
التاهل
الباق
تعكم
القى
##برات
انتقل
ويجمع
##وجب
##عمق
ouzou
يحول
الزيادة
##rifi
وبم
##تهالي
باها
افضح
نحسو
تفل
رمضان🌙
تساع
اقف
دافي
تجنن
خليكم
شعره
وخزة
بقلبك
هدفها
mnie
يكفيني
الراهن
ودول
mino
moudj
lyamat
دولا
shou
shut
takde
ماريا
تركز
مزطول
فاهمه
hommage
ياكلوا
##😒😒😒😒
[...]
